{
  "version": "1.0",
  "truncation": null,
  "padding": null,
  "added_tokens": [
    {
      "id": 0,
      "content": "<PAD>",
      "single_word": false,
      "lstrip": false,
      "rstrip": false,
      "normalized": false,
      "special": true
    },
    {
      "id": 1,
      "content": "<UNK>",
      "single_word": false,
      "lstrip": false,
      "rstrip": false,
      "normalized": false,
      "special": true
    },
    {
      "id": 2,
      "content": "<|user|>",
      "single_word": false,
      "lstrip": false,
      "rstrip": false,
      "normalized": false,
      "special": true
    },
    {
      "id": 3,
      "content": "<|assistant|>",
      "single_word": false,
      "lstrip": false,
      "rstrip": false,
      "normalized": false,
      "special": true
    },
    {
      "id": 4,
      "content": "<EOS>",
      "single_word": false,
      "lstrip": false,
      "rstrip": false,
      "normalized": false,
      "special": true
    }
  ],
  "normalizer": null,
  "pre_tokenizer": {
    "type": "ByteLevel",
    "add_prefix_space": false,
    "trim_offsets": true,
    "use_regex": true
  },
  "post_processor": null,
  "decoder": {
    "type": "ByteLevel",
    "add_prefix_space": true,
    "trim_offsets": true,
    "use_regex": true
  },
  "model": {
    "type": "BPE",
    "dropout": null,
    "unk_token": "<UNK>",
    "continuing_subword_prefix": null,
    "end_of_word_suffix": null,
    "fuse_unk": false,
    "byte_fallback": false,
    "ignore_merges": false,
    "vocab": {
      "<PAD>": 0,
      "<UNK>": 1,
      "<|user|>": 2,
      "<|assistant|>": 3,
      "<EOS>": 4,
      "!": 5,
      "\"": 6,
      "#": 7,
      "$": 8,
      "%": 9,
      "&": 10,
      "'": 11,
      "(": 12,
      ")": 13,
      "*": 14,
      "+": 15,
      ",": 16,
      "-": 17,
      ".": 18,
      "/": 19,
      "0": 20,
      "1": 21,
      "2": 22,
      "3": 23,
      "4": 24,
      "5": 25,
      "6": 26,
      "7": 27,
      "8": 28,
      "9": 29,
      ":": 30,
      ";": 31,
      "=": 32,
      "?": 33,
      "@": 34,
      "A": 35,
      "B": 36,
      "C": 37,
      "D": 38,
      "E": 39,
      "F": 40,
      "G": 41,
      "H": 42,
      "I": 43,
      "J": 44,
      "K": 45,
      "L": 46,
      "M": 47,
      "N": 48,
      "O": 49,
      "P": 50,
      "Q": 51,
      "R": 52,
      "S": 53,
      "T": 54,
      "U": 55,
      "V": 56,
      "W": 57,
      "X": 58,
      "Y": 59,
      "Z": 60,
      "[": 61,
      "\\": 62,
      "]": 63,
      "_": 64,
      "a": 65,
      "b": 66,
      "c": 67,
      "d": 68,
      "e": 69,
      "f": 70,
      "g": 71,
      "h": 72,
      "i": 73,
      "j": 74,
      "k": 75,
      "l": 76,
      "m": 77,
      "n": 78,
      "o": 79,
      "p": 80,
      "q": 81,
      "r": 82,
      "s": 83,
      "t": 84,
      "u": 85,
      "v": 86,
      "w": 87,
      "x": 88,
      "y": 89,
      "z": 90,
      "~": 91,
      "£": 92,
      "¥": 93,
      "°": 94,
      "²": 95,
      "Â": 96,
      "â": 97,
      "ã": 98,
      "Ġ": 99,
      "Ģ": 100,
      "ģ": 101,
      "Ĥ": 102,
      "ĵ": 103,
      "Ķ": 104,
      "ĺ": 105,
      "Ļ": 106,
      "ľ": 107,
      "Ŀ": 108,
      "Ġt": 109,
      "Ġ.": 110,
      "Ġa": 111,
      "ou": 112,
      "he": 113,
      "Ġ'": 114,
      "in": 115,
      "Ġs": 116,
      "re": 117,
      "ĠI": 118,
      "Ġw": 119,
      "ha": 120,
      "Ġ,": 121,
      "Ġy": 122,
      "Ġyou": 123,
      "Ġthe": 124,
      "Ġm": 125,
      "on": 126,
      "Ġc": 127,
      "er": 128,
      "Ġb": 129,
      "Ġto": 130,
      "it": 131,
      "ll": 132,
      "Ġ?": 133,
      "Ġf": 134,
      "or": 135,
      "Ġd": 136,
      "ing": 137,
      "is": 138,
      "an": 139,
      "Ġ\"": 140,
      "es": 141,
      "Ġp": 142,
      "Ġl": 143,
      "ve": 144,
      "hat": 145,
      "nd": 146,
      "Ġg": 147,
      "Ġo": 148,
      "Ġn": 149,
      "om": 150,
      "en": 151,
      "ĠW": 152,
      "Ġha": 153,
      "ow": 154,
      "ar": 155,
      "et": 156,
      "Ġin": 157,
      "at": 158,
      "ĠT": 159,
      "ed": 160,
      "Ġit": 161,
      "st": 162,
      "le": 163,
      "ay": 164,
      "Ġth": 165,
      "Ġof": 166,
      "Ġand": 167,
      "Ġis": 168,
      "ke": 169,
      "ic": 170,
      "ot": 171,
      "âĢ": 172,
      "ĠâĢ": 173,
      "ĠY": 174,
      "Ġbe": 175,
      "ĠâĢĻ": 176,
      "se": 177,
      "Ġfor": 178,
      "Ġe": 179,
      "ld": 180,
      "Ġon": 181,
      "Ġre": 182,
      "'s": 183,
      "Ġhave": 184,
      "oo": 185,
      "Ġwe": 186,
      "ut": 187,
      "Ġh": 188,
      "Ġthat": 189,
      "Ġdo": 190,
      "gh": 191,
      "Ġhe": 192,
      "ver": 193,
      "Ġme": 194,
      "id": 195,
      "al": 196,
      "as": 197,
      "ould": 198,
      "ĠH": 199,
      "out": 200,
      "Ġli": 201,
      "ĠA": 202,
      "Ġyour": 203,
      "all": 204,
      "Ġare": 205,
      "ght": 206,
      "ri": 207,
      "Ġu": 208,
      "ion": 209,
      "Ġcan": 210,
      "ĠS": 211,
      "'t": 212,
      "Ġ!": 213,
      "im": 214,
      "ent": 215,
      "ac": 216,
      "ill": 217,
      "Ġst": 218,
      "ly": 219,
      "ĠO": 220,
      "ro": 221,
      "Ġne": 222,
      "Ġan": 223,
      "ome": 224,
      "Ġse": 225,
      "ir": 226,
      "Ġmy": 227,
      "ĠIt": 228,
      "Ġlike": 229,
      "ith": 230,
      "Ġk": 231,
      "ĠWe": 232,
      "ad": 233,
      "ĠM": 234,
      "Ġgo": 235,
      "ch": 236,
      "ĠYou": 237,
      "ĠThe": 238,
      "Ġwith": 239,
      "ĠC": 240,
      "ust": 241,
      "ĠD": 242,
      "ĠWhat": 243,
      "ter": 244,
      "Ġab": 245,
      "Ġthis": 246,
      "han": 247,
      "our": 248,
      "ood": 249,
      "am": 250,
      "ant": 251,
      "Ġj": 252,
      "ink": 253,
      "ĠYes": 254,
      "ally": 255,
      "ĠB": 256,
      "['": 257,
      "Ġso": 258,
      "Ġat": 259,
      "ĠN": 260,
      "if": 261,
      "Ġsu": 262,
      "ake": 263,
      "very": 264,
      "Ġabout": 265,
      "ce": 266,
      "Ġwill": 267,
      "Ġthink": 268,
      "her": 269,
      "ct": 270,
      "Ġ']": 271,
      "Ġdon": 272,
      "Ġnot": 273,
      "Ġsh": 274,
      "Ġkn": 275,
      "Ġget": 276,
      "ry": 277,
      "'m": 278,
      "op": 279,
      "Ġknow": 280,
      "ea": 281,
      "th": 282,
      "Ġwor": 283,
      "Ġbut": 284,
      "ore": 285,
      "ur": 286,
      "ook": 287,
      "ĠThat": 288,
      "Ġthere": 289,
      "Ġwas": 290,
      "ice": 291,
      "Ġas": 292,
      "ble": 293,
      "Ġsee": 294,
      "Ġex": 295,
      "ge": 296,
      "nt": 297,
      "Ġcom": 298,
      "ra": 299,
      "Ġsome": 300,
      "ind": 301,
      "pp": 302,
      "Ġwant": 303,
      "Ġall": 304,
      "ĠHow": 305,
      "right": 306,
      "ime": 307,
      "Ġone": 308,
      "ation": 309,
      "Ġor": 310,
      "ase": 311,
      "Ġal": 312,
      "Ġany": 313,
      "il": 314,
      "us": 315,
      "Ġwhat": 316,
      "ight": 317,
      "Ġjust": 318,
      "'ll": 319,
      "ive": 320,
      "Ġpro": 321,
      "hank": 322,
      "Ġwould": 323,
      "Ġgood": 324,
      "ere": 325,
      "ĠL": 326,
      "Ġright": 327,
      "Ġvery": 328,
      "Ġde": 329,
      "ĠWell": 330,
      "ul": 331,
      "art": 332,
      "est": 333,
      "Ġtime": 334,
      "one": 335,
      "lease": 336,
      "rom": 337,
      "Ġneed": 338,
      "qu": 339,
      "Ġwh": 340,
      "Ġpl": 341,
      "ate": 342,
      "Ġtoo": 343,
      "ess": 344,
      "ĠDo": 345,
      "ĠNo": 346,
      "Ġout": 347,
      "Ġwork": 348,
      "Ġmu": 349,
      "ong": 350,
      "ure": 351,
      "ine": 352,
      "hen": 353,
      "Ġhere": 354,
      "Ġreally": 355,
      "ast": 356,
      "ment": 357,
      "ĠOh": 358,
      "ell": 359,
      "Ġmuch": 360,
      "Ġam": 361,
      "Ġsp": 362,
      "Ġup": 363,
      "ck": 364,
      "ain": 365,
      "ĠBut": 366,
      "Ġthey": 367,
      "Ġdid": 368,
      "ers": 369,
      "ĠP": 370,
      "ort": 371,
      "el": 372,
      "Ġour": 373,
      "Ġtake": 374,
      "Ġif": 375,
      "Ġlook": 376,
      "Ġco": 377,
      "ig": 378,
      "any": 379,
      "Ġgoing": 380,
      "day": 381,
      "Ġr": 382,
      "ĠThank": 383,
      "Ġfrom": 384,
      "ack": 385,
      "ound": 386,
      "Ġcomp": 387,
      "os": 388,
      "ĠG": 389,
      "end": 390,
      "Ġus": 391,
      "Ġshould": 392,
      "ard": 393,
      "Ġcon": 394,
      "ĠF": 395,
      "ear": 396,
      "ie": 397,
      "un": 398,
      "Ġplease": 399,
      "and": 400,
      "ays": 401,
      "Ġfe": 402,
      "Ġ\"]": 403,
      "Ġaf": 404,
      "ĠE": 405,
      "um": 406,
      "Ġnow": 407,
      "Ġlo": 408,
      "Ġcl": 409,
      "Ġqu": 410,
      "ite": 411,
      "ĠR": 412,
      "reat": 413,
      "ĠJ": 414,
      "Ġoff": 415,
      "Ġmo": 416,
      "ning": 417,
      "Ġthem": 418,
      "Ġmore": 419,
      "hing": 420,
      "ist": 421,
      "ĠWh": 422,
      "ame": 423,
      "res": 424,
      "'ve": 425,
      "ick": 426,
      "are": 427,
      "Ġ1": 428,
      "here": 429,
      "Ġint": 430,
      "ak": 431,
      "Ġbeen": 432,
      "ĠAnd": 433,
      "lp": 434,
      "ree": 435,
      "Ġro": 436,
      "Ġhelp": 437,
      "thing": 438,
      "Ġgot": 439,
      "Ġv": 440,
      "ity": 441,
      "Ġnew": 442,
      "Ġhow": 443,
      "Ġno": 444,
      "Ġmake": 445,
      "ect": 446,
      "'re": 447,
      "ol": 448,
      "Ġag": 449,
      "ies": 450,
      "ount": 451,
      "Ġcould": 452,
      "omet": 453,
      "Ġpe": 454,
      "Ġ..": 455,
      "ople": 456,
      "ob": 457,
      "Ġtw": 458,
      "ous": 459,
      "ag": 460,
      "ep": 461,
      "ĠIs": 462,
      "Ġby": 463,
      "ther": 464,
      "Ġ...": 465,
      "Ġover": 466,
      "per": 467,
      "Ġche": 468,
      "Ġwhen": 469,
      "ĠHe": 470,
      "ass": 471,
      "Ġhas": 472,
      "'d": 473,
      "Ġtr": 474,
      "00": 475,
      "Ġpeople": 476,
      "act": 477,
      "ish": 478,
      "Ġen": 479,
      "ĠTh": 480,
      "Ġbus": 481,
      "Ġlot": 482,
      "ĠOK": 483,
      "Ġsure": 484,
      "Ġbu": 485,
      "Ġshe": 486,
      "Ġsa": 487,
      "Ġher": 488,
      "row": 489,
      "Ġch": 490,
      "Ġevery": 491,
      "Ġar": 492,
      "ough": 493,
      "Ġcall": 494,
      "Ġwee": 495,
      "irst": 496,
      "[\"": 497,
      "Ġthen": 498,
      "Ġthing": 499,
      "orry": 500,
      "ĠCan": 501,
      "Ġwell": 502,
      "use": 503,
      "Ġsomet": 504,
      "able": 505,
      "ci": 506,
      "Ġcome": 507,
      "Ġtell": 508,
      "Ġyear": 509,
      "Ġhad": 510,
      "age": 511,
      "ven": 512,
      "ber": 513,
      "ff": 514,
      "Ġlong": 515,
      "Ġbet": 516,
      "ĠLet": 517,
      "ĠV": 518,
      "red": 519,
      "cc": 520,
      "der": 521,
      "ide": 522,
      "lf": 523,
      "Ġback": 524,
      "Ġday": 525,
      "Ġdoes": 526,
      "Ġafter": 527,
      "ĠThey": 528,
      "Ġother": 529,
      "ud": 530,
      "Ġgreat": 531,
      "ving": 532,
      "Ġpre": 533,
      "ĠSo": 534,
      "Ġpr": 535,
      "Ġway": 536,
      "em": 537,
      "Ġroom": 538,
      "itt": 539,
      "eah": 540,
      "Ġcour": 541,
      "Ġhim": 542,
      "Ġtwo": 543,
      "Ġgive": 544,
      "so": 545,
      "xt": 546,
      "blem": 547,
      "ach": 548,
      "Ġproblem": 549,
      "ually": 550,
      "Ġad": 551,
      "ĠIf": 552,
      "oy": 553,
      "Ġlet": 554,
      "pt": 555,
      "Ġwon": 556,
      "ĠWhy": 557,
      "Ġapp": 558,
      "Ġonly": 559,
      "king": 560,
      "Ġfirst": 561,
      "ĠMy": 562,
      "Ġjob": 563,
      "ĠCh": 564,
      "Ġ2": 565,
      "ĠThere": 566,
      "ab": 567,
      "port": 568,
      "Ġsir": 569,
      "Ġpay": 570,
      "Ġmany": 571,
      "Ġkind": 572,
      "ace": 573,
      "ress": 574,
      "Ġll": 575,
      "Ġgu": 576,
      "be": 577,
      "Ġim": 578,
      "Ġsomething": 579,
      "Ġcourse": 580,
      "Ġweek": 581,
      "Ġtry": 582,
      "own": 583,
      "ty": 584,
      "ĠMay": 585,
      "ance": 586,
      "Ġalso": 587,
      "ĠThis": 588,
      "ich": 589,
      "ary": 590,
      "ĠHere": 591,
      "ose": 592,
      "Ġsay": 593,
      "ail": 594,
      "Ġcompany": 595,
      "ave": 596,
      "Ġbr": 597,
      "Ġfind": 598,
      "ĠAre": 599,
      "Ġfl": 600,
      "ĠYeah": 601,
      "Ġtoday": 602,
      "other": 603,
      "Ġper": 604,
      "ue": 605,
      "oney": 606,
      "ng": 607,
      "Ġsorry": 608,
      "Ġfeel": 609,
      "ĠSure": 610,
      "Ġlea": 611,
      "riend": 612,
      "Ġanything": 613,
      "Ġwere": 614,
      "Ġpart": 615,
      "Ġdidn": 616,
      "ans": 617,
      "Ġlast": 618,
      "ater": 619,
      "Ġbetter": 620,
      "Ġexp": 621,
      "ĠMr": 622,
      "Ġmeet": 623,
      "Ġcar": 624,
      "ool": 625,
      "fore": 626,
      "Ġke": 627,
      "ert": 628,
      "Ġchan": 629,
      "Ġcheck": 630,
      "Ġres": 631,
      "Ġtra": 632,
      "Ġnext": 633,
      "Ġte": 634,
      "ought": 635,
      "Ġhapp": 636,
      "Ġbuy": 637,
      "Ġlove": 638,
      "ady": 639,
      "ĠOk": 640,
      "ark": 641,
      "Ġmust": 642,
      "orning": 643,
      "ign": 644,
      "Ġthan": 645,
      "erv": 646,
      "ittle": 647,
      "Ġmin": 648,
      "Ġbefore": 649,
      "ause": 650,
      "Ġlittle": 651,
      "iz": 652,
      "Ġmon": 653,
      "way": 654,
      "Ġwho": 655,
      "ounds": 656,
      "Ġun": 657,
      "ways": 658,
      "Ġmorning": 659,
      "iff": 660,
      "Ġwr": 661,
      "erest": 662,
      "Ġbec": 663,
      "Ġuse": 664,
      "ĠChin": 665,
      "urn": 666,
      "Ġalways": 667,
      "orrow": 668,
      "Ġdown": 669,
      "Ġstart": 670,
      "Ġmoney": 671,
      "ition": 672,
      "get": 673,
      "du": 674,
      "Ġhis": 675,
      "Ġinterest": 676,
      "Ġacc": 677,
      "Ġmonth": 678,
      "Ġmay": 679,
      "Ġyes": 680,
      "ait": 681,
      "ise": 682,
      "Ġsm": 683,
      "Ġman": 684,
      "orm": 685,
      "ĠVe": 686,
      "ĠDon": 687,
      "Ġdiff": 688,
      "Ġnice": 689,
      "Ġdis": 690,
      "ĠShe": 691,
      "ful": 692,
      "ee": 693,
      "Ġthings": 694,
      "ars": 695,
      "ĠIn": 696,
      "Ġfriend": 697,
      "ade": 698,
      "Ġask": 699,
      "atch": 700,
      "ĠWould": 701,
      "Ġname": 702,
      "ĠThanks": 703,
      "Ġmean": 704,
      "Ġle": 705,
      "alk": 706,
      "mer": 707,
      "Ġhome": 708,
      "ather": 709,
      "ip": 710,
      "Ġhar": 711,
      "Ġcha": 712,
      "Ġtom": 713,
      "Ġplay": 714,
      "ens": 715,
      "Ġbl": 716,
      "Ġminut": 717,
      "ile": 718,
      "nder": 719,
      "ĠWhen": 720,
      "ĠU": 721,
      "Ġagain": 722,
      "Ġid": 723,
      "Ġstill": 724,
      "ĠNot": 725,
      "int": 726,
      "Ġmost": 727,
      "Ġput": 728,
      "ost": 729,
      "self": 730,
      "ĠHave": 731,
      "Ġfew": 732,
      "Ġdep": 733,
      "Ġthank": 734,
      "Ġrec": 735,
      "Ġtomorrow": 736,
      "ft": 737,
      "Ġdays": 738,
      "Ġfood": 739,
      "Ġthese": 740,
      "ese": 741,
      "ĠGood": 742,
      "vie": 743,
      "Ġtheir": 744,
      "ire": 745,
      "oss": 746,
      "Ġnight": 747,
      "iss": 748,
      "Ġ3": 749,
      "ĠAll": 750,
      "ting": 751,
      "ope": 752,
      "ild": 753,
      "Ġwhere": 754,
      "Ġinto": 755,
      "Ġunder": 756,
      "Ġidea": 757,
      "ap": 758,
      "ang": 759,
      "Ġel": 760,
      "Ġhour": 761,
      "Ġnever": 762,
      "od": 763,
      "Ġnum": 764,
      "ny": 765,
      "Ġbest": 766,
      "Ġclass": 767,
      "Ġwait": 768,
      "ions": 769,
      "Ġinter": 770,
      "Ġph": 771,
      "ence": 772,
      "Ġfin": 773,
      "Ġdr": 774,
      "Ġthree": 775,
      "Ġsc": 776,
      "Ġshow": 777,
      "ĠRe": 778,
      "ouse": 779,
      "Ġbad": 780,
      "ĠThen": 781,
      "gg": 782,
      "Ġhard": 783,
      "Ġbig": 784,
      "Ġcard": 785,
      "ĠJust": 786,
      "Ġcont": 787,
      "ond": 788,
      "Ġkeep": 789,
      "Ġ$": 790,
      "cl": 791,
      "ĠWhere": 792,
      "Ġelse": 793,
      "Ġwhy": 794,
      "pl": 795,
      "av": 796,
      "ĠDid": 797,
      "igh": 798,
      "ious": 799,
      "iness": 800,
      "Ġyears": 801,
      "Ġbecause": 802,
      "Ġbook": 803,
      "ock": 804,
      "Ġstud": 805,
      "Ġgr": 806,
      "ily": 807,
      "ried": 808,
      "ĠEng": 809,
      "eci": 810,
      "ĠPlease": 811,
      "Ġquite": 812,
      "Ġsch": 813,
      "imes": 814,
      "raid": 815,
      "Ġafraid": 816,
      "Ġnumber": 817,
      "hes": 818,
      "ner": 819,
      "Ġmind": 820,
      "Ġeat": 821,
      "Ġaround": 822,
      "Ġdoll": 823,
      "Ġplan": 824,
      "Ġfam": 825,
      "ĠEngl": 826,
      "ctually": 827,
      "Ġcare": 828,
      "artment": 829,
      "Ġdoing": 830,
      "hed": 831,
      "Ġhot": 832,
      "Ġfine": 833,
      "ĠCould": 834,
      "ms": 835,
      "ĠOf": 836,
      "ult": 837,
      "Ġschool": 838,
      "Ġoffice": 839,
      "Ġhope": 840,
      "ertain": 841,
      "What": 842,
      "Ġsal": 843,
      "vel": 844,
      "form": 845,
      "Ġ5": 846,
      "ves": 847,
      "ull": 848,
      "ations": 849,
      "erson": 850,
      "fer": 851,
      "Ġbusiness": 852,
      "Ġdiffere": 853,
      "ĠBe": 854,
      "Ġpa": 855,
      "Ġsupp": 856,
      "ĠEnglish": 857,
      "ord": 858,
      "Ġcount": 859,
      "Ġsounds": 860,
      "Ġlooking": 861,
      "Ġsha": 862,
      "Ġmade": 863,
      "Ġprice": 864,
      "Ġdec": 865,
      "Ġhouse": 866,
      "Ġrem": 867,
      "Ġtak": 868,
      "ĠReally": 869,
      "Ġstay": 870,
      "ello": 871,
      "Ġworking": 872,
      "Ġplace": 873,
      "Ġthought": 874,
      "Ġrest": 875,
      "Ġhand": 876,
      "Ġchar": 877,
      "oon": 878,
      "ĠMaybe": 879,
      "ĠSt": 880,
      "Ġold": 881,
      "Ġorder": 882,
      "und": 883,
      "les": 884,
      "Ġdoesn": 885,
      "oint": 886,
      "Ġatt": 887,
      "Ġdrink": 888,
      "Ġbel": 889,
      "ieve": 890,
      "ple": 891,
      "ĠChinese": 892,
      "Ġspea": 893,
      "Ġop": 894,
      "Ġisn": 895,
      "Ġsoon": 896,
      "ĠK": 897,
      "Ġeas": 898,
      "ible": 899,
      "Ġsaid": 900,
      "wn": 901,
      "Ġanother": 902,
      "Ġminutes": 903,
      "lic": 904,
      "Ġdollars": 905,
      "we": 906,
      "ash": 907,
      "oth": 908,
      "Ġlear": 909,
      "Ġwhich": 910,
      "ne": 911,
      "Ġgl": 912,
      "joy": 913,
      "Ġsame": 914,
      "ax": 915,
      "Ġeven": 916,
      "vers": 917,
      "ank": 918,
      "ten": 919,
      "Ġpass": 920,
      "ated": 921,
      "Ġeach": 922,
      "Ġsec": 923,
      "Ġmight": 924,
      "Ġwonder": 925,
      "Ġchange": 926,
      "ix": 927,
      "Ġimport": 928,
      "Ġrel": 929,
      "Ġsuch": 930,
      "Ġaccount": 931,
      "og": 932,
      "Ġins": 933,
      "Ġear": 934,
      "Ġhaven": 935,
      "Ġenjoy": 936,
      "noon": 937,
      "Ġperson": 938,
      "Ġafternoon": 939,
      "Ġdri": 940,
      "Ġdes": 941,
      "Ġlate": 942,
      "tty": 943,
      "Ġra": 944,
      "Ġbre": 945,
      "Ġleave": 946,
      "duct": 947,
      "ons": 948,
      "ready": 949,
      "Ġusually": 950,
      "Ġmom": 951,
      "Ġmak": 952,
      "Ġalready": 953,
      "Ġinv": 954,
      "Ġem": 955,
      "Ġcle": 956,
      "Ġhear": 957,
      "ĠNow": 958,
      "anc": 959,
      "Ġguess": 960,
      "ertainly": 961,
      "Ġwatch": 962,
      "Ġread": 963,
      "Ġenough": 964,
      "Ġsk": 965,
      "li": 966,
      "Ġserv": 967,
      "ular": 968,
      "ember": 969,
      "Ġhigh": 970,
      "Ġyet": 971,
      "Ġheard": 972,
      "als": 973,
      "ize": 974,
      "Ġbit": 975,
      "stand": 976,
      "Ġexc": 977,
      "ew": 978,
      "Ġwhile": 979,
      "Ġeverything": 980,
      "ren": 981,
      "icket": 982,
      "Ġdifferent": 983,
      "Ġdone": 984,
      "uck": 985,
      "Ġlist": 986,
      "Ġset": 987,
      "up": 988,
      "Ġbo": 989,
      "Ġthose": 990,
      "Ġbring": 991,
      "Ġtrain": 992,
      "Ġtalk": 993,
      "Ġmat": 994,
      "ents": 995,
      "Ġstop": 996,
      "ork": 997,
      "Ġcomput": 998,
      "Ġticket": 999,
      "Ġgetting": 1000,
      "Ġhappen": 1001,
      "Ġimportant": 1002,
      "ory": 1003,
      "Ġvis": 1004,
      "Ġter": 1005,
      "ors": 1006,
      "Ġcost": 1007,
      "Ġpretty": 1008,
      "Ġturn": 1009,
      "Ġdin": 1010,
      "Ġbelieve": 1011,
      "fe": 1012,
      "Ġfriends": 1013,
      "Ġfo": 1014,
      "Ġgir": 1015,
      "ict": 1016,
      "Ġspeci": 1017,
      "Ġopen": 1018,
      "Ġton": 1019,
      "ĠYour": 1020,
      "Ġphone": 1021,
      "rough": 1022,
      "ĠAny": 1023,
      "Ġfr": 1024,
      "Ġrece": 1025,
      "Ġlooks": 1026,
      "Ġeve": 1027,
      "Ġworry": 1028,
      "ub": 1029,
      "Ġap": 1030,
      "Ġused": 1031,
      "uan": 1032,
      "aut": 1033,
      "Ġexper": 1034,
      "Ġfun": 1035,
      "Ġser": 1036,
      "Ġinform": 1037,
      "ical": 1038,
      "Ġcoll": 1039,
      "Ġ10": 1040,
      "Ġmeeting": 1041,
      "ps": 1042,
      "Ġadd": 1043,
      "Ġunderstand": 1044,
      "Ġleft": 1045,
      "come": 1046,
      "ved": 1047,
      "Ġmar": 1048,
      "Ġthrough": 1049,
      "Ġdisc": 1050,
      "Ġbeaut": 1051,
      "Ġair": 1052,
      "arket": 1053,
      "ities": 1054,
      "Ġsend": 1055,
      "Ġwrong": 1056,
      "pe": 1057,
      "Ġcou": 1058,
      "Ġrun": 1059,
      "Ġreg": 1060,
      "Ġsmall": 1061,
      "Ġsign": 1062,
      "Ġaway": 1063,
      "Ġfree": 1064,
      "Ġspecial": 1065,
      "ĠOkay": 1066,
      "Ġready": 1067,
      "Ġoften": 1068,
      "view": 1069,
      "ably": 1070,
      "ĠBy": 1071,
      "ience": 1072,
      "Ġshop": 1073,
      "its": 1074,
      "ments": 1075,
      "Ġtonight": 1076,
      "iv": 1077,
      "Ġten": 1078,
      "Ġproduct": 1079,
      "ĠWill": 1080,
      "meric": 1081,
      "Ġlearn": 1082,
      "Ġoffer": 1083,
      "How": 1084,
      "Ġlater": 1085,
      "gether": 1086,
      "Ġ6": 1087,
      "Ġcoming": 1088,
      "ĠAmeric": 1089,
      "Ġ4": 1090,
      "Ġdinner": 1091,
      "iting": 1092,
      "cept": 1093,
      "Ġhappy": 1094,
      "Ġeasy": 1095,
      "Ġtri": 1096,
      "Ġfamily": 1097,
      "Ġexpens": 1098,
      "Ġhours": 1099,
      "Ġcity": 1100,
      "Ġfar": 1101,
      "fect": 1102,
      "Ġmoment": 1103,
      "Ġcomputer": 1104,
      "Ġever": 1105,
      "Ġfive": 1106,
      "Ġcons": 1107,
      "ason": 1108,
      "ery": 1109,
      "Ġspeak": 1110,
      "ince": 1111,
      "Ġquest": 1112,
      "Ġbreak": 1113,
      "ivers": 1114,
      "Ġac": 1115,
      "Ġcol": 1116,
      "ian": 1117,
      "Ġmus": 1118,
      "Ġend": 1119,
      "ĠAl": 1120,
      "iday": 1121,
      "ctor": 1122,
      "Ġbeautif": 1123,
      "ĠFr": 1124,
      "Ġchild": 1125,
      "gr": 1126,
      "Ġthanks": 1127,
      "Ġparty": 1128,
      "Ġcountry": 1129,
      "Ġown": 1130,
      "bably": 1131,
      "Ġpres": 1132,
      "ia": 1133,
      "xc": 1134,
      "Ġstr": 1135,
      "Ġform": 1136,
      "Ġla": 1137,
      "Ġlive": 1138,
      "Ġimp": 1139,
      "Ġseems": 1140,
      "Ġagree": 1141,
      "Ġprefer": 1142,
      "Ġmiss": 1143,
      "Ġkid": 1144,
      "Ġbeautiful": 1145,
      "Ġreal": 1146,
      "old": 1147,
      "Ġservice": 1148,
      "ever": 1149,
      "ices": 1150,
      "ĠAs": 1151,
      "Ġremember": 1152,
      "Ġinterested": 1153,
      "Ġevening": 1154,
      "Hello": 1155,
      "Ġ7": 1156,
      "Ġtold": 1157,
      "Ġposs": 1158,
      "Ġnews": 1159,
      "ploy": 1160,
      "Ġwent": 1161,
      "ward": 1162,
      "Ġfill": 1163,
      "Ġhaving": 1164,
      "You": 1165,
      "Ġable": 1166,
      "ĠGreat": 1167,
      "Ġtrans": 1168,
      "xcuse": 1169,
      "Ġtogether": 1170,
      "ĠSorry": 1171,
      "Ġext": 1172,
      "Ġav": 1173,
      "Ġpos": 1174,
      "Ġok": 1175,
      "ĠFor": 1176,
      "ract": 1177,
      "Ġ8": 1178,
      "ates": 1179,
      "Ġtrue": 1180,
      "ntil": 1181,
      "Ġinformation": 1182,
      "Ġexpensive": 1183,
      "aur": 1184,
      "nts": 1185,
      "ouble": 1186,
      "ited": 1187,
      "Ġmarket": 1188,
      "let": 1189,
      "leas": 1190,
      "ĠWhich": 1191,
      "by": 1192,
      "Ġsomeone": 1193,
      "Ġseat": 1194,
      "ired": 1195,
      "Ġpick": 1196,
      "Ġmyself": 1197,
      "kend": 1198,
      "omm": 1199,
      "ction": 1200,
      "ient": 1201,
      "ping": 1202,
      "room": 1203,
      "Ġweekend": 1204,
      "ffee": 1205,
      "It": 1206,
      "air": 1207,
      "Ġprom": 1208,
      "Ġret": 1209,
      "enty": 1210,
      "Ġuntil": 1211,
      "Ġcomm": 1212,
      "Ġsing": 1213,
      "ĠLook": 1214,
      "ody": 1215,
      "Ġinterview": 1216,
      "Ġglad": 1217,
      "Ġcor": 1218,
      "Ġfour": 1219,
      "ĠChina": 1220,
      "Ġboth": 1221,
      "Ġyourself": 1222,
      "Ġsl": 1223,
      "Ġinteresting": 1224,
      "Ġfav": 1225,
      "Ġnothing": 1226,
      "000": 1227,
      "alking": 1228,
      "ial": 1229,
      "Ġgirl": 1230,
      "Ġwater": 1231,
      "Ġbed": 1232,
      "ual": 1233,
      "ating": 1234,
      "oh": 1235,
      "Ġactually": 1236,
      "aurant": 1237,
      "unch": 1238,
      "Ġmovie": 1239,
      "Ġprobably": 1240,
      "Ġpol": 1241,
      "Ġbeing": 1242,
      "ides": 1243,
      "alth": 1244,
      "Ġlife": 1245,
      "mm": 1246,
      "iet": 1247,
      "Ġcred": 1248,
      "Ġlar": 1249,
      "Ġspend": 1250,
      "most": 1251,
      "Ġsur": 1252,
      "Ġapartment": 1253,
      "ĠTo": 1254,
      "Ġexpect": 1255,
      "Ġstudy": 1256,
      "ib": 1257,
      "ife": 1258,
      "Ġthinking": 1259,
      "ager": 1260,
      "Ġadv": 1261,
      "oor": 1262,
      "Ġworld": 1263,
      "Ġcoffee": 1264,
      "Ġago": 1265,
      "Ġbusy": 1266,
      "ely": 1267,
      "reet": 1268,
      "Ġty": 1269,
      "Ġexperience": 1270,
      "ph": 1271,
      "Ġexam": 1272,
      "Ġmusic": 1273,
      "Ġ-": 1274,
      "Good": 1275,
      "Ġma": 1276,
      "Ġflight": 1277,
      "Ġbag": 1278,
      "Ġinst": 1279,
      "Ġqual": 1280,
      "lcome": 1281,
      "terday": 1282,
      "Ġpleas": 1283,
      "Ġthir": 1284,
      "clud": 1285,
      "leep": 1286,
      "ific": 1287,
      "ef": 1288,
      "Ġcook": 1289,
      "Ġrestaurant": 1290,
      "The": 1291,
      "Ġcharge": 1292,
      "Do": 1293,
      "Ġfil": 1294,
      "Ġguy": 1295,
      "ĠActually": 1296,
      "Ġsecond": 1297,
      "atur": 1298,
      "Ġmaybe": 1299,
      "Ġposition": 1300,
      "Ġwin": 1301,
      "Ġsit": 1302,
      "Ġfull": 1303,
      "ift": 1304,
      "Ġbank": 1305,
      "Ġcho": 1306,
      "Ġhotel": 1307,
      "ĠDoes": 1308,
      "erc": 1309,
      "Ġpossible": 1310,
      "Ġfound": 1311,
      "ĠWow": 1312,
      "Ġmed": 1313,
      "Ġbir": 1314,
      "Ġnear": 1315,
      "tern": 1316,
      "Ġsugg": 1317,
      "actly": 1318,
      "Ġsuggest": 1319,
      "Ġhalf": 1320,
      "Ġsuit": 1321,
      "Ġmatter": 1322,
      "Ġstand": 1323,
      "iversity": 1324,
      "ange": 1325,
      "Ġmet": 1326,
      "Ġsub": 1327,
      "ĠWho": 1328,
      "ding": 1329,
      "Ġbeg": 1330,
      "Ġclot": 1331,
      "Ġcalled": 1332,
      "Ġemploy": 1333,
      "ĠCertainly": 1334,
      "Ġyuan": 1335,
      "time": 1336,
      "Ġfavor": 1337,
      "Ġcur": 1338,
      "enc": 1339,
      "Ġey": 1340,
      "ĠCome": 1341,
      "Ġwalk": 1342,
      "Ġsw": 1343,
      "Ġcredit": 1344,
      "ied": 1345,
      "Ġseen": 1346,
      "osed": 1347,
      "Ġyesterday": 1348,
      "Ġtable": 1349,
      "Ġconf": 1350,
      "Ġca": 1351,
      "Excuse": 1352,
      "nce": 1353,
      "ered": 1354,
      "Ġluck": 1355,
      "Ġent": 1356,
      "Ġcam": 1357,
      "Ġbill": 1358,
      "Ġshort": 1359,
      "Ġcold": 1360,
      "Ġavail": 1361,
      "az": 1362,
      "ject": 1363,
      "Ġsever": 1364,
      "ries": 1365,
      "Ġhappened": 1366,
      "Ġfact": 1367,
      "Ġwear": 1368,
      "Ġterri": 1369,
      "Ġseveral": 1370,
      "Ġ%": 1371,
      "Ġhur": 1372,
      "Ġweeks": 1373,
      "Ġthough": 1374,
      "Ġhealth": 1375,
      "Ġalmost": 1376,
      "ommend": 1377,
      "Ġdeal": 1378,
      "arents": 1379,
      "Ġtravel": 1380,
      "ished": 1381,
      "Ġpack": 1382,
      "Ġwar": 1383,
      "Ġcut": 1384,
      "ense": 1385,
      "Ġind": 1386,
      "ention": 1387,
      "Ġstore": 1388,
      "Ġ9": 1389,
      "Ġbought": 1390,
      "Ġrecommend": 1391,
      "Ġtimes": 1392,
      "ĠOur": 1393,
      "Ġele": 1394,
      "ĠEvery": 1395,
      "Ġtrip": 1396,
      "Ġcash": 1397,
      "ics": 1398,
      "Ġlight": 1399,
      "Ġwife": 1400,
      "ath": 1401,
      "Ġjo": 1402,
      "Ġvisit": 1403,
      "Ġserious": 1404,
      "Ġavailable": 1405,
      "Ġfore": 1406,
      "Ġhead": 1407,
      "Hi": 1408,
      "Ġref": 1409,
      "Ġsell": 1410,
      "Ġve": 1411,
      "Ġinclud": 1412,
      "Ġred": 1413,
      "Ġwanted": 1414,
      "Ġdress": 1415,
      "br": 1416,
      "Ġboss": 1417,
      "Ġweather": 1418,
      "Ġclothes": 1419,
      "ither": 1420,
      "Ġclean": 1421,
      "Ġ20": 1422,
      "ger": 1423,
      "Ġwind": 1424,
      "Ġbas": 1425,
      "Ġreserv": 1426,
      "Ġtaking": 1427,
      "Ġparents": 1428,
      "Ġmove": 1429,
      "Ġperfect": 1430,
      "ĠUn": 1431,
      "Ġpop": 1432,
      "Ġexerc": 1433,
      "Ġvac": 1434,
      "ohn": 1435,
      "ustom": 1436,
      "Ġintern": 1437,
      "Ġline": 1438,
      "ages": 1439,
      "ĠSm": 1440,
      "ational": 1441,
      "jing": 1442,
      "Ġdoctor": 1443,
      "Ġmanager": 1444,
      "Ġdepartment": 1445,
      "ues": 1446,
      "Ġsince": 1447,
      "ffic": 1448,
      "Ġlarge": 1449,
      "line": 1450,
      "ott": 1451,
      "Ġcase": 1452,
      "Ġfast": 1453,
      "oose": 1454,
      "ĠNew": 1455,
      "Ġresp": 1456,
      "Ġmach": 1457,
      "Ġonce": 1458,
      "Ġwelcome": 1459,
      "Ġrather": 1460,
      "Ġdire": 1461,
      "ures": 1462,
      "ĠFine": 1463,
      "Ġtea": 1464,
      "Ġcr": 1465,
      "where": 1466,
      "ĠAn": 1467,
      "Ġminute": 1468,
      "ont": 1469,
      "osit": 1470,
      "ortun": 1471,
      "Ġdiffic": 1472,
      "Ġbirth": 1473,
      "Ġsleep": 1474,
      "Ġsmo": 1475,
      "ike": 1476,
      "Ġcalling": 1477,
      "Ġrent": 1478,
      "ĠRight": 1479,
      "ines": 1480,
      "ided": 1481,
      "Ġsum": 1482,
      "Ġmonths": 1483,
      "reen": 1484,
      "got": 1485,
      "Ġtour": 1486,
      "Ġstarted": 1487,
      "oes": 1488,
      "Ġact": 1489,
      "Ġteam": 1490,
      "Ġwish": 1491,
      "Ġearly": 1492,
      "Ġmakes": 1493,
      "cri": 1494,
      "Ġpie": 1495,
      "Ġappoint": 1496,
      "Ġtalking": 1497,
      "Ġbro": 1498,
      "Ġsaw": 1499,
      "body": 1500,
      "Ġtrying": 1501,
      "uring": 1502,
      "Ġbegin": 1503,
      "Can": 1504,
      "ijing": 1505,
      "Ġlost": 1506,
      "Ġsales": 1507,
      "ĠAf": 1508,
      "ĠBeijing": 1509,
      "Ġwouldn": 1510,
      "Ġpaper": 1511,
      "Ġaccept": 1512,
      "Ġsim": 1513,
      "ĠAb": 1514,
      "Ġ;": 1515,
      "ĠOne": 1516,
      "Ġseem": 1517,
      "Ġreason": 1518,
      "hip": 1519,
      "Ġloc": 1520,
      "Ġletter": 1521,
      "Ġwrite": 1522,
      "Ġchildren": 1523,
      "ught": 1524,
      "Ġcustom": 1525,
      "Ġass": 1526,
      "ss": 1527,
      "Ġpain": 1528,
      "Ġsy": 1529,
      "cell": 1530,
      "Ġcomes": 1531,
      "pr": 1532,
      "Ġaren": 1533,
      "ĠFriday": 1534,
      "ret": 1535,
      "Ġteac": 1536,
      "ower": 1537,
      "ream": 1538,
      "ames": 1539,
      "Ġproblems": 1540,
      "Ġreservation": 1541,
      "Ġhair": 1542,
      "Ġtook": 1543,
      "Ġrain": 1544,
      "undred": 1545,
      "Ġtast": 1546,
      "cess": 1547,
      "Ġtot": 1548,
      "Ġdet": 1549,
      "Ġpoint": 1550,
      "ently": 1551,
      "ĠMe": 1552,
      "Ġ15": 1553,
      "Ġconsid": 1554,
      "gram": 1555,
      "Ġtop": 1556,
      "Ġdate": 1557,
      "Ġproducts": 1558,
      "Ġdifficult": 1559,
      "Ġlunch": 1560,
      "icy": 1561,
      "ĠJohn": 1562,
      "Ġleast": 1563,
      "Ġhat": 1564,
      "ĠTom": 1565,
      "Ġmarried": 1566,
      "work": 1567,
      "side": 1568,
      "Ġhon": 1569,
      "Ġmaking": 1570,
      "He": 1571,
      "ident": 1572,
      "ĠAt": 1573,
      "Ġeveryone": 1574,
      "Ġsix": 1575,
      "Ġyoung": 1576,
      "Ġart": 1577,
      "ming": 1578,
      "Ġbirthday": 1579,
      "Ġwasn": 1580,
      "na": 1581,
      "oll": 1582,
      "Ġcolor": 1583,
      "Ġcame": 1584,
      "ital": 1585,
      "Ġexactly": 1586,
      "Ġcouldn": 1587,
      "ĠTV": 1588,
      "Ġhundred": 1589,
      "ĠMon": 1590,
      "Ġprogram": 1591,
      "ball": 1592,
      "Ġsize": 1593,
      "Ġinc": 1594,
      "ĠHi": 1595,
      "irt": 1596,
      "mp": 1597,
      "Ġgrad": 1598,
      "Ġsummer": 1599,
      "ister": 1600,
      "Ġbuild": 1601,
      "Ġalong": 1602,
      "Ġswe": 1603,
      "haps": 1604,
      "Ġquick": 1605,
      "ĠSmith": 1606,
      "We": 1607,
      "Ġgame": 1608,
      "Ġmain": 1609,
      "Ġprep": 1610,
      "Ġ12": 1611,
      "ĠVery": 1612,
      "Ġcouple": 1613,
      "ces": 1614,
      "ĠMary": 1615,
      "Ġwhole": 1616,
      "ĠHello": 1617,
      "Ġpri": 1618,
      "urance": 1619,
      "aper": 1620,
      "ĠSee": 1621,
      "Ġstreet": 1622,
      "Ġwithout": 1623,
      "ĠEx": 1624,
      "Ġchoose": 1625,
      "Ġwonderful": 1626,
      "Ġappointment": 1627,
      "head": 1628,
      "Ġmess": 1629,
      "Ġliving": 1630,
      "Ġprof": 1631,
      "Ġappre": 1632,
      "man": 1633,
      "ision": 1634,
      "uss": 1635,
      "Ġfeeling": 1636,
      "Ġbooks": 1637,
      "Ġshopping": 1638,
      "Ġreturn": 1639,
      "Ġes": 1640,
      "oup": 1641,
      "Ġmem": 1642,
      "peci": 1643,
      "ush": 1644,
      "orts": 1645,
      "Ġsn": 1646,
      "Ġdrive": 1647,
      "ec": 1648,
      "Ġsays": 1649,
      "raw": 1650,
      "ately": 1651,
      "Ġappreci": 1652,
      "Ġrep": 1653,
      "ĠSounds": 1654,
      "Ġsty": 1655,
      "Ġlisten": 1656,
      "ege": 1657,
      "uc": 1658,
      "Ġbar": 1659,
      "olut": 1660,
      "Ġarri": 1661,
      "Ġfavorite": 1662,
      "Ġexercise": 1663,
      "ĠAfter": 1664,
      "Ġchance": 1665,
      "Ġ)": 1666,
      "Ġless": 1667,
      "ĠSome": 1668,
      "ility": 1669,
      "Ġed": 1670,
      "Ġtest": 1671,
      "ĠPer": 1672,
      "ption": 1673,
      "Ġcontract": 1674,
      "zy": 1675,
      "Ġhold": 1676,
      "pecially": 1677,
      "Ġmaj": 1678,
      "Ġ(": 1679,
      "esides": 1680,
      "Ġword": 1681,
      "ĠFirst": 1682,
      "aturday": 1683,
      "Ġsometimes": 1684,
      "But": 1685,
      "een": 1686,
      "ling": 1687,
      "Ġtired": 1688,
      "Ġdeposit": 1689,
      "Ġsupposed": 1690,
      "Ġside": 1691,
      "ĠOn": 1692,
      "Ġinsurance": 1693,
      "Ġduring": 1694,
      "Ġits": 1695,
      "led": 1696,
      "Ġtax": 1697,
      "Ġpost": 1698,
      "ĠTake": 1699,
      "Ġrequ": 1700,
      "Ġkey": 1701,
      "Ġreceive": 1702,
      "ĠHa": 1703,
      "Ġconc": 1704,
      "Ġfloor": 1705,
      "less": 1706,
      "uff": 1707,
      "Ġboy": 1708,
      "Ġtrouble": 1709,
      "ier": 1710,
      "Ġtried": 1711,
      "Ġconsider": 1712,
      "Ġdef": 1713,
      "ness": 1714,
      "Ġeither": 1715,
      "Ġsalary": 1716,
      "Ġcertainly": 1717,
      "Ġreport": 1718,
      "angu": 1719,
      "inite": 1720,
      "Ġwaiting": 1721,
      "cellent": 1722,
      "Ġpict": 1723,
      "Ġrate": 1724,
      "Ġrecei": 1725,
      "Ġpresent": 1726,
      "Ġteacher": 1727,
      "ĠSaturday": 1728,
      "Ġdecided": 1729,
      "vert": 1730,
      "Ġworked": 1731,
      "ĠAmerican": 1732,
      "ener": 1733,
      "Ġforget": 1734,
      "Ġcomplet": 1735,
      "Ġshall": 1736,
      "Ġbox": 1737,
      "Ġpleasure": 1738,
      "rown": 1739,
      "Ġquestions": 1740,
      "adam": 1741,
      "Ġprov": 1742,
      "ween": 1743,
      "band": 1744,
      "ature": 1745,
      "Ġallow": 1746,
      "Ġuniversity": 1747,
      "Ġpur": 1748,
      "Ġquestion": 1749,
      "Ġmeans": 1750,
      "olog": 1751,
      "Ġforeign": 1752,
      "Ġcond": 1753,
      "Ġwindow": 1754,
      "Ġlik": 1755,
      "Ġseven": 1756,
      "ru": 1757,
      "Ġpopular": 1758,
      "ins": 1759,
      "icken": 1760,
      "Ġapply": 1761,
      "Ġmother": 1762,
      "Ġlangu": 1763,
      "ĠHey": 1764,
      "Ġmachine": 1765,
      "cu": 1766,
      "itc": 1767,
      "Ġbetween": 1768,
      "Ġcollege": 1769,
      "Ġsale": 1770,
      "Ġasked": 1771,
      "lain": 1772,
      "Ġpub": 1773,
      "Ġpract": 1774,
      "Ġappreciate": 1775,
      "Ġmajor": 1776,
      "ings": 1777,
      "Ġbott": 1778,
      "Ġextra": 1779,
      "rist": 1780,
      "Ġmen": 1781,
      "Ġopp": 1782,
      "ĠSh": 1783,
      "Ġneeds": 1784,
      "Ġattend": 1785,
      "Ġthirty": 1786,
      "Ġones": 1787,
      "Ġda": 1788,
      "Ġpar": 1789,
      "Ġhus": 1790,
      "Ġfoll": 1791,
      "Ġhusband": 1792,
      "eed": 1793,
      "Ġforgot": 1794,
      "Ġchang": 1795,
      "solut": 1796,
      "Ġpark": 1797,
      "Ġcent": 1798,
      "ume": 1799,
      "ails": 1800,
      "Ġespecially": 1801,
      "Ġcondition": 1802,
      "Ġtwenty": 1803,
      "ĠAnything": 1804,
      "Ġterrible": 1805,
      "Ġyeah": 1806,
      "Ġmil": 1807,
      "Ġpast": 1808,
      "ĠSomet": 1809,
      "Ġoutside": 1810,
      "astic": 1811,
      "Ġcatch": 1812,
      "Ġforward": 1813,
      "Ġeff": 1814,
      "ared": 1815,
      "Ġquality": 1816,
      "Ġtraffic": 1817,
      "Ġvacation": 1818,
      "Ġpartic": 1819,
      "Ġrelax": 1820,
      "Ġpersonal": 1821,
      "Ġahead": 1822,
      "Ġwine": 1823,
      "Ġpaid": 1824,
      "Ġfollow": 1825,
      "Ġsuppose": 1826,
      "Ġfoot": 1827,
      "Ġhol": 1828,
      "Ġkinds": 1829,
      "initely": 1830,
      "cause": 1831,
      "Ġconven": 1832,
      "ousand": 1833,
      "Ġfinished": 1834,
      "Ġfit": 1835,
      "Ġface": 1836,
      "ator": 1837,
      "Ġdeli": 1838,
      "cial": 1839,
      "Ġswim": 1840,
      "Ġi": 1841,
      "Ġaw": 1842,
      "Ġwom": 1843,
      "Ġeight": 1844,
      "Ġsun": 1845,
      "Ġsuper": 1846,
      "Ġclose": 1847,
      "Ġhate": 1848,
      "Ġcop": 1849,
      "irm": 1850,
      "Ġkids": 1851,
      "solutely": 1852,
      "Ġsick": 1853,
      "Ġgradu": 1854,
      "stem": 1855,
      "ills": 1856,
      "Ġlose": 1857,
      "hang": 1858,
      "Ġamount": 1859,
      "Ġchicken": 1860,
      "Ġtele": 1861,
      "Ġspeaking": 1862,
      "Ġtransfer": 1863,
      "Ġsingle": 1864,
      "ised": 1865,
      "Ġweight": 1866,
      "clock": 1867,
      "ĠBecause": 1868,
      "Ġann": 1869,
      "Ġaddress": 1870,
      "Ġcool": 1871,
      "Ġ100": 1872,
      "Ġwinter": 1873,
      "con": 1874,
      "Ġonline": 1875,
      "Ġveget": 1876,
      "Ġpress": 1877,
      "Ġ30": 1878,
      "Ġsystem": 1879,
      "Ġreceipt": 1880,
      "Ġdance": 1881,
      "Ġdog": 1882,
      "Ġstuff": 1883,
      "Ġdepend": 1884,
      "ug": 1885,
      "Ġthousand": 1886,
      "bye": 1887,
      "Ġgift": 1888,
      "Ġtakes": 1889,
      "ully": 1890,
      "IB": 1891,
      "ives": 1892,
      "Ġfinish": 1893,
      "Ġrespons": 1894,
      "ross": 1895,
      "ĠMiss": 1896,
      "ĠChrist": 1897,
      "Ġdiscuss": 1898,
      "Ġjoin": 1899,
      "May": 1900,
      "Wh": 1901,
      "ees": 1902,
      "ead": 1903,
      "resh": 1904,
      "Ġimpress": 1905,
      "Ġplaying": 1906,
      "Ġfront": 1907,
      "ses": 1908,
      "vies": 1909,
      "Ġgets": 1910,
      "ĠRIB": 1911,
      "Ġtotal": 1912,
      "pect": 1913,
      "Ġtem": 1914,
      "arch": 1915,
      "ĠGo": 1916,
      "Ġtype": 1917,
      "Ġwhe": 1918,
      "Ġmovies": 1919,
      "Ġblack": 1920,
      "Ġaut": 1921,
      "Ġsound": 1922,
      "ield": 1923,
      "Ġclear": 1924,
      "Ġhonest": 1925,
      "Ġstra": 1926,
      "Ġcra": 1927,
      "Ġgoes": 1928,
      "Ġbuilding": 1929,
      "Ġfather": 1930,
      "Ġfix": 1931,
      "Ġ200": 1932,
      "Ġfig": 1933,
      "Ġdocu": 1934,
      "Ġeyes": 1935,
      "Are": 1936,
      "Ġmail": 1937,
      "Ġsister": 1938,
      "ĠTw": 1939,
      "Ġaff": 1940,
      "aby": 1941,
      "velop": 1942,
      "ĠAmerica": 1943,
      "ĠAlright": 1944,
      "Ġplac": 1945,
      "Ġmedic": 1946,
      "ĠMonday": 1947,
      "cle": 1948,
      "ove": 1949,
      "Ġtickets": 1950,
      "rent": 1951,
      "Ġcup": 1952,
      "Ġwhite": 1953,
      "ables": 1954,
      "Ġchoice": 1955,
      "Ġdirect": 1956,
      "ced": 1957,
      "Ġstation": 1958,
      "osp": 1959,
      "So": 1960,
      "ugg": 1961,
      "Ġmag": 1962,
      "Ġexcellent": 1963,
      "Ġanyway": 1964,
      "Ġ50": 1965,
      "Ġconvenient": 1966,
      "Ġokay": 1967,
      "ĠAbout": 1968,
      "Ġfall": 1969,
      "ĠYork": 1970,
      "outh": 1971,
      "ording": 1972,
      "Ġtaken": 1973,
      "ring": 1974,
      "Ġgener": 1975,
      "Ġgoods": 1976,
      "Ġvar": 1977,
      "hedu": 1978,
      "ĠPe": 1979,
      "Ġarr": 1980,
      "Ġdiscount": 1981,
      "hedule": 1982,
      "Ġball": 1983,
      "Ġbrother": 1984,
      "Ġbor": 1985,
      "Ġdesign": 1986,
      "Ġstyle": 1987,
      "bs": 1988,
      "har": 1989,
      "ĠTa": 1990,
      "Ġcountries": 1991,
      "Ġreading": 1992,
      "ĠTell": 1993,
      "ĠSir": 1994,
      "Ġwants": 1995,
      "Ġplanning": 1996,
      "Ġpassport": 1997,
      "ium": 1998,
      "ton": 1999,
      "ative": 2000,
      "Ġadvert": 2001,
      "itchen": 2002,
      "cent": 2003,
      "ric": 2004,
      "ising": 2005,
      "Ġkitchen": 2006,
      "ĠNice": 2007,
      "Ġsports": 2008,
      "Ġapplic": 2009,
      "Ġleaving": 2010,
      "hange": 2011,
      "Ġphot": 2012,
      "fort": 2013,
      "min": 2014,
      "Ġcat": 2015,
      "iron": 2016,
      "Ġrecently": 2017,
      "Is": 2018,
      "Ġdoor": 2019,
      "ĠBesides": 2020,
      "fully": 2021,
      "Ġbath": 2022,
      "Ġgone": 2023,
      "Ġworth": 2024,
      "Ġwatching": 2025,
      "30": 2026,
      "fast": 2027,
      "Ġmine": 2028,
      "ote": 2029,
      "Ġanyone": 2030,
      "ulations": 2031,
      "Ġroad": 2032,
      "Ġbecome": 2033,
      "ashion": 2034,
      "Ġhurt": 2035,
      "duce": 2036,
      "Ġfamous": 2037,
      "ĠPerhaps": 2038,
      "ken": 2039,
      "Ġsent": 2040,
      "ets": 2041,
      "Ġenv": 2042,
      "Ġlucky": 2043,
      "sw": 2044,
      "Ġtreat": 2045,
      "Ġfresh": 2046,
      "Ġshoes": 2047,
      "ountain": 2048,
      "Ġinstead": 2049,
      "nter": 2050,
      "Ġdro": 2051,
      "ency": 2052,
      "Hey": 2053,
      "ĠIntern": 2054,
      "Ġkidding": 2055,
      "bers": 2056,
      "Ġord": 2057,
      "Ġmanage": 2058,
      "ĠSometimes": 2059,
      "ung": 2060,
      "Ġsurpr": 2061,
      "Ġemployees": 2062,
      "Ġansw": 2063,
      "Ġproject": 2064,
      "Ġpublic": 2065,
      "Ġneigh": 2066,
      "Ġperform": 2067,
      "Ġboard": 2068,
      "Ġstraight": 2069,
      "Ġneighb": 2070,
      "Ġbaby": 2071,
      "ĠWait": 2072,
      "Ġinvest": 2073,
      "Ġtraining": 2074,
      "ĠZ": 2075,
      "Ġhig": 2076,
      "Ġopportun": 2077,
      "me": 2078,
      "ys": 2079,
      "hall": 2080,
      "Ġdouble": 2081,
      "ĠAh": 2082,
      "Ġarea": 2083,
      "Ġsucc": 2084,
      "eak": 2085,
      "Ġparticular": 2086,
      "sh": 2087,
      "Ġmid": 2088,
      "Ġfish": 2089,
      "ĠCom": 2090,
      "Ġdel": 2091,
      "Ġtrad": 2092,
      "Ġsave": 2093,
      "Ġschedule": 2094,
      "Ġhandle": 2095,
      "Ġtaste": 2096,
      "Would": 2097,
      "Ġben": 2098,
      "vern": 2099,
      "ants": 2100,
      "Ġrooms": 2101,
      "Ġcamer": 2102,
      "Ġdefinitely": 2103,
      "Ġsuccess": 2104,
      "col": 2105,
      "Ġoh": 2106,
      "Ġsoft": 2107,
      "ĠLi": 2108,
      "Ġbreakfast": 2109,
      "ped": 2110,
      "Ġsoup": 2111,
      "Ġlow": 2112,
      "edding": 2113,
      "Ġval": 2114,
      "ĠUS": 2115,
      "ondon": 2116,
      "ĠAcc": 2117,
      "rat": 2118,
      "Ġsat": 2119,
      "sel": 2120,
      "ĠSp": 2121,
      "ĠLondon": 2122,
      "Ġinternet": 2123,
      "Ġlocal": 2124,
      "Ġlanguage": 2125,
      "Ġdist": 2126,
      "ĠWith": 2127,
      "Ġcompan": 2128,
      "Ġdecision": 2129,
      "Ġcollect": 2130,
      "Ġtown": 2131,
      "Ġmist": 2132,
      "Ġhist": 2133,
      "ĠJan": 2134,
      "Ġrunning": 2135,
      "ories": 2136,
      "ĠCl": 2137,
      "Ġstudent": 2138,
      "Ġsecret": 2139,
      "mas": 2140,
      "Ġothers": 2141,
      "Ġexchange": 2142,
      "fortable": 2143,
      "Ġitem": 2144,
      "Ġheav": 2145,
      "els": 2146,
      "Ġfru": 2147,
      "Ġprofess": 2148,
      "ral": 2149,
      "erve": 2150,
      "pped": 2151,
      "Ġshouldn": 2152,
      "Ġmod": 2153,
      "Ġexciting": 2154,
      "Ġlugg": 2155,
      "Ġgames": 2156,
      "Ġstock": 2157,
      "Ġdevelop": 2158,
      "Ġlovely": 2159,
      "conom": 2160,
      "mail": 2161,
      "Ġprices": 2162,
      "Ġstrong": 2163,
      "ior": 2164,
      "Ġwedding": 2165,
      "Ġlat": 2166,
      "Ġcontact": 2167,
      "Ġwhether": 2168,
      "Ġplenty": 2169,
      "Ġlots": 2170,
      "Ġnewsp": 2171,
      "Ġplaces": 2172,
      "Ġcompanies": 2173,
      "Ġluggage": 2174,
      "Ġste": 2175,
      "Ġpercent": 2176,
      "Ġrecord": 2177,
      "Ġelect": 2178,
      "Have": 2179,
      "aff": 2180,
      "gan": 2181,
      "Ġmeat": 2182,
      "Ġlibr": 2183,
      "rect": 2184,
      "Ġstep": 2185,
      "Ġholiday": 2186,
      "Ġson": 2187,
      "Ġwall": 2188,
      "uture": 2189,
      "Ġdesk": 2190,
      "rench": 2191,
      "Ġcrazy": 2192,
      "hai": 2193,
      "Ġmention": 2194,
      "ĠTr": 2195,
      "Ġattention": 2196,
      "Ġadvice": 2197,
      "Ġafford": 2198,
      "ospital": 2199,
      "Ġgrow": 2200,
      "Ġpair": 2201,
      "Ġdecide": 2202,
      "Ġtou": 2203,
      "eter": 2204,
      "Ġclock": 2205,
      "itional": 2206,
      "Ġpriv": 2207,
      "mit": 2208,
      "Ġusing": 2209,
      "Ġlonger": 2210,
      "Ġlibrary": 2211,
      "Ġhor": 2212,
      "ĠPro": 2213,
      "Ġregular": 2214,
      "Ġexample": 2215,
      "ĠChristmas": 2216,
      "Ġsort": 2217,
      "Ġsense": 2218,
      "ters": 2219,
      "Ġdelic": 2220,
      "Ġintro": 2221,
      "Ġblue": 2222,
      "ĠMs": 2223,
      "Ġlaw": 2224,
      "Ġpiece": 2225,
      "Ġbenef": 2226,
      "Ġfuture": 2227,
      "Ġequ": 2228,
      "ĠHmm": 2229,
      "Ġquiet": 2230,
      "Ġ25": 2231,
      "Ġcarry": 2232,
      "Ġcurrent": 2233,
      "Ġmadam": 2234,
      "Ġhands": 2235,
      "Ġfilm": 2236,
      "Ġpot": 2237,
      "Ġhu": 2238,
      "Ġmedicine": 2239,
      "Ġcas": 2240,
      "Ġfield": 2241,
      "ically": 2242,
      "Ġgovern": 2243,
      "ĠThese": 2244,
      "iving": 2245,
      "med": 2246,
      "to": 2247,
      "Ġfashion": 2248,
      "ache": 2249,
      "ĠNe": 2250,
      "Ġamaz": 2251,
      "Ġleg": 2252,
      "Ġstudents": 2253,
      "Ġwondering": 2254,
      "Ġdepends": 2255,
      "Ġapplication": 2256,
      "Th": 2257,
      "Ġhospital": 2258,
      "Ġship": 2259,
      "Ġplans": 2260,
      "Ġlead": 2261,
      "apan": 2262,
      "Ġeffect": 2263,
      "oud": 2264,
      "Ġcover": 2265,
      "itting": 2266,
      "Ġpolice": 2267,
      "Ġoper": 2268,
      "Ġcann": 2269,
      "ĠMost": 2270,
      "chn": 2271,
      "iew": 2272,
      "ĠJack": 2273,
      "Ġguest": 2274,
      "Ġbrand": 2275,
      "Ġclasses": 2276,
      "Ġdriving": 2277,
      "Ġpromot": 2278,
      "Ġfootball": 2279,
      "com": 2280,
      "Ġdiet": 2281,
      "isf": 2282,
      "Ġgreen": 2283,
      "Ġshirt": 2284,
      "ĠRo": 2285,
      "Ġview": 2286,
      "Ġbedroom": 2287,
      "Ġeduc": 2288,
      "Ġmagaz": 2289,
      "Ġheavy": 2290,
      "Ġfa": 2291,
      "ĠFrench": 2292,
      "Ġcareful": 2293,
      "cription": 2294,
      "ĠPeople": 2295,
      "Ġfurn": 2296,
      "Ġdanc": 2297,
      "Ġnecess": 2298,
      "Ġorgan": 2299,
      "ĠJapan": 2300,
      "Ġprint": 2301,
      "Ġpayment": 2302,
      "Ġquickly": 2303,
      "io": 2304,
      "Ġegg": 2305,
      "ĠSund": 2306,
      "rol": 2307,
      "Ġworried": 2308,
      "Ġcompet": 2309,
      "Ġeng": 2310,
      "Ġplane": 2311,
      "Ġgirls": 2312,
      "Ġstudying": 2313,
      "Ġarrange": 2314,
      "ients": 2315,
      "son": 2316,
      "ots": 2317,
      "Ġheart": 2318,
      "Ġdeg": 2319,
      "Ġeating": 2320,
      "Ġsimple": 2321,
      "Ġmessage": 2322,
      "Ġprovide": 2323,
      "Ġvegetables": 2324,
      "Ġenviron": 2325,
      "ĠComp": 2326,
      "cha": 2327,
      "Ġice": 2328,
      "Ġfair": 2329,
      "Ġstaff": 2330,
      "lfriend": 2331,
      "more": 2332,
      "Ġide": 2333,
      "Ġsong": 2334,
      "Ġsand": 2335,
      "Ġland": 2336,
      "ĠTues": 2337,
      "Ġhurry": 2338,
      "ĠTuesday": 2339,
      "nect": 2340,
      "por": 2341,
      "ĠID": 2342,
      "ongrat": 2343,
      "Ġ11": 2344,
      "Ġresult": 2345,
      "Ġdifference": 2346,
      "Ġglass": 2347,
      "Ġpromise": 2348,
      "Ġeye": 2349,
      "bo": 2350,
      "Ġz": 2351,
      "Ġhit": 2352,
      "ĠTwo": 2353,
      "Ġenvironment": 2354,
      "eng": 2355,
      "Ġbeer": 2356,
      "Ġsea": 2357,
      "Ġknew": 2358,
      "Ġexcept": 2359,
      "akes": 2360,
      "ission": 2361,
      "Ġimpro": 2362,
      "phone": 2363,
      "Ġanswer": 2364,
      "hind": 2365,
      "Ġ/": 2366,
      "ĠShall": 2367,
      "cel": 2368,
      "Ġwriting": 2369,
      "Ġgrand": 2370,
      "Ġcounter": 2371,
      "Ġcamp": 2372,
      "Ġhigher": 2373,
      "Ġsatisf": 2374,
      "Ġamazing": 2375,
      "Ġfly": 2376,
      "vent": 2377,
      "Ġgirlfriend": 2378,
      "Ġdetails": 2379,
      "Ġlatest": 2380,
      "Ġpat": 2381,
      "Ġcorrect": 2382,
      "Ġsmoking": 2383,
      "ored": 2384,
      "Ġdear": 2385,
      "Ġflow": 2386,
      "Ġfigure": 2387,
      "Ġbehind": 2388,
      "ĠDad": 2389,
      "Ġasking": 2390,
      "ude": 2391,
      "Ġskin": 2392,
      "Ġlearned": 2393,
      "Ġtouch": 2394,
      "Ġgovernment": 2395,
      "Ġdam": 2396,
      "Ġclim": 2397,
      "ĠWas": 2398,
      "Ġsol": 2399,
      "urs": 2400,
      "Ġcheap": 2401,
      "ĠNothing": 2402,
      "Ġguys": 2403,
      "ched": 2404,
      "dle": 2405,
      "ĠQ": 2406,
      "iced": 2407,
      "Ġwithin": 2408,
      "amb": 2409,
      "Ġcomfortable": 2410,
      "aster": 2411,
      "Ġfinal": 2412,
      "Ġrelations": 2413,
      "ĠAnyway": 2414,
      "ĠBye": 2415,
      "Ġcorner": 2416,
      "Ġreceived": 2417,
      "Ġswimming": 2418,
      "Ġnerv": 2419,
      "Ġinside": 2420,
      "Ġpicture": 2421,
      "Ġdaught": 2422,
      "Ġseeing": 2423,
      "Ġsaying": 2424,
      "ĠMrs": 2425,
      "Ġtechn": 2426,
      "Ġhappens": 2427,
      "Ġblood": 2428,
      "Ġskills": 2429,
      "ĠSunday": 2430,
      "ym": 2431,
      "ional": 2432,
      "Ġnotice": 2433,
      "Ġtaxi": 2434,
      "And": 2435,
      "Ġmountain": 2436,
      "ilities": 2437,
      "Ġspace": 2438,
      "Ġbuying": 2439,
      "Ġearli": 2440,
      "Ġhealthy": 2441,
      "ĠTai": 2442,
      "raph": 2443,
      "Ġworks": 2444,
      "Ġride": 2445,
      "Ġclub": 2446,
      "Ġfre": 2447,
      "Ġstress": 2448,
      "Ġabsolutely": 2449,
      "Ġexcited": 2450,
      "Ġcosts": 2451,
      "selves": 2452,
      "ongratulations": 2453,
      "ertific": 2454,
      "Ġlearning": 2455,
      "Ġperformance": 2456,
      "Ġhistory": 2457,
      "Ġgave": 2458,
      "Ġhop": 2459,
      "Ġ19": 2460,
      "Ġcooking": 2461,
      "Ġcannot": 2462,
      "iqu": 2463,
      "Ġdream": 2464,
      "Ġju": 2465,
      "ĠBr": 2466,
      "ĠBob": 2467,
      "Ġround": 2468,
      "aged": 2469,
      "Ġtemper": 2470,
      "Ġprivate": 2471,
      "oub": 2472,
      "Ġfif": 2473,
      "Ġnine": 2474,
      "Ġcontin": 2475,
      "airs": 2476,
      "Ġpackage": 2477,
      "ĠEverything": 2478,
      "Ġwords": 2479,
      "Did": 2480,
      "iod": 2481,
      "Ġmater": 2482,
      "Ġpounds": 2483,
      "Ġhum": 2484,
      "Ġsomewhere": 2485,
      "Ġproper": 2486,
      "ĠGet": 2487,
      "ney": 2488,
      "Ġenjoyed": 2489,
      "Ġcopy": 2490,
      "ale": 2491,
      "den": 2492,
      "ze": 2493,
      "Ġfur": 2494,
      "Ġairport": 2495,
      "Ġpractice": 2496,
      "Ġfruit": 2497,
      "This": 2498,
      "ration": 2499,
      "Ġperiod": 2500,
      "Ġattract": 2501,
      "Ġcustomers": 2502,
      "Ġincre": 2503,
      "Ġnewspaper": 2504,
      "even": 2505,
      "gy": 2506,
      "ones": 2507,
      "Ġob": 2508,
      "Ġanim": 2509,
      "Ġcheaper": 2510,
      "Ġresume": 2511,
      "anger": 2512,
      "ĠUniversity": 2513,
      "Ġcompletely": 2514,
      "Ġcream": 2515,
      "iter": 2516,
      "road": 2517,
      "ĠMany": 2518,
      "Ġdocuments": 2519,
      "Ġitems": 2520,
      "Ġdaughter": 2521,
      "Ġage": 2522,
      "Ġgym": 2523,
      "Ġmeal": 2524,
      "Ġur": 2525,
      "Ġanymore": 2526,
      "ĠGr": 2527,
      "Ġappro": 2528,
      "Ġjobs": 2529,
      "Ġfamil": 2530,
      "Ġregist": 2531,
      "ah": 2532,
      "lor": 2533,
      "ĠSu": 2534,
      "Ġcars": 2535,
      "Ġopin": 2536,
      "Ġassist": 2537,
      "Ġdelicious": 2538,
      "cy": 2539,
      "mo": 2540,
      "over": 2541,
      "Ġsight": 2542,
      "Ġconnect": 2543,
      "Ġgiven": 2544,
      "Ġpolicy": 2545,
      "gage": 2546,
      "Ġri": 2547,
      "Ġmatch": 2548,
      "Ġdishes": 2549,
      "Ġsubway": 2550,
      "Ġsnow": 2551,
      "ele": 2552,
      "tt": 2553,
      "Ġbreat": 2554,
      "Ġbeef": 2555,
      "Ġspent": 2556,
      "ĠGive": 2557,
      "Ġfinally": 2558,
      "Ġchocol": 2559,
      "Ġcamera": 2560,
      "antastic": 2561,
      "unk": 2562,
      "Ġagainst": 2563,
      "Ġslow": 2564,
      "ortunately": 2565,
      "ĠInternet": 2566,
      "Ġnecessary": 2567,
      "Ġcake": 2568,
      "Ġdiv": 2569,
      "icle": 2570,
      "Ġyours": 2571,
      "Ġbrought": 2572,
      "Ġteach": 2573,
      "Ġtyp": 2574,
      "Ġwarm": 2575,
      "Ġsweet": 2576,
      "Ġpurcha": 2577,
      "Ġnervous": 2578,
      "Ġstate": 2579,
      "Ġloan": 2580,
      "Ġcards": 2581,
      "Ġdriver": 2582,
      "Ġdelivery": 2583,
      "Ġpressure": 2584,
      "--": 2585,
      "If": 2586,
      "Ġsci": 2587,
      "ony": 2588,
      "uth": 2589,
      "Ġovertime": 2590,
      "Ġaccording": 2591,
      "Ġsalad": 2592,
      "Ġdrinks": 2593,
      "Ġwoman": 2594,
      "Ġfift": 2595,
      "Ġgas": 2596,
      "Ġwebs": 2597,
      "Ġkill": 2598,
      "ĠMom": 2599,
      "Ġaccident": 2600,
      "Ġindust": 2601,
      "Ġrequire": 2602,
      "Ġparking": 2603,
      "Ġimprove": 2604,
      "Could": 2605,
      "Ġmot": 2606,
      "ĠDep": 2607,
      "ĠJim": 2608,
      "Ġtelling": 2609,
      "Ġshare": 2610,
      "Ġcustomer": 2611,
      "Ġtelephone": 2612,
      "dy": 2613,
      "ned": 2614,
      "onna": 2615,
      "Ġfat": 2616,
      "Ġdry": 2617,
      "ĠWang": 2618,
      "Ġstar": 2619,
      "ĠOr": 2620,
      "Ġsection": 2621,
      "Ġbooked": 2622,
      "Ġcommun": 2623,
      "pri": 2624,
      "uro": 2625,
      "Ġeconom": 2626,
      "Ġwithd": 2627,
      "Ġspeed": 2628,
      "cks": 2629,
      "ump": 2630,
      "Ġcourses": 2631,
      "ized": 2632,
      "Ġthird": 2633,
      "Ġlikes": 2634,
      "Ġliked": 2635,
      "Ġfurther": 2636,
      "Ġsqu": 2637,
      "Ġiss": 2638,
      "Ġexplain": 2639,
      "Ġcontrol": 2640,
      "Ġcharac": 2641,
      "Ġflowers": 2642,
      "mes": 2643,
      "tle": 2644,
      "Ġocc": 2645,
      "Ġ40": 2646,
      "Ġmilk": 2647,
      "hanghai": 2648,
      "My": 2649,
      "bit": 2650,
      "hib": 2651,
      "ware": 2652,
      "Ġlic": 2653,
      "illy": 2654,
      "Ġwilling": 2655,
      "Ġchecked": 2656,
      "Ġblock": 2657,
      "Ġlately": 2658,
      "medi": 2659,
      "mb": 2660,
      "wan": 2661,
      "Ġtall": 2662,
      "Ġcap": 2663,
      "Ġrid": 2664,
      "Ġ18": 2665,
      "Ġchecking": 2666,
      "Ġjuice": 2667,
      "Ġwithdraw": 2668,
      "That": 2669,
      "de": 2670,
      "Ġill": 2671,
      "itive": 2672,
      "Ġbeach": 2673,
      "ified": 2674,
      "Ġprocess": 2675,
      "ancy": 2676,
      "Ġterms": 2677,
      "cribe": 2678,
      "Ġearlier": 2679,
      "Ġfee": 2680,
      "Ġtwice": 2681,
      "ĠThose": 2682,
      "Ġprepare": 2683,
      "aw": 2684,
      "oc": 2685,
      "Ġtre": 2686,
      "ĠIsn": 2687,
      "Ġtrade": 2688,
      "Ġcharg": 2689,
      "Ġopportunity": 2690,
      "ĠNext": 2691,
      "ĠTaiwan": 2692,
      "Ġcents": 2693,
      "Ġgonna": 2694,
      "Ġsil": 2695,
      "Ġgra": 2696,
      "imum": 2697,
      "ĠBl": 2698,
      "avid": 2699,
      "ĠDidn": 2700,
      "Ġmenu": 2701,
      "unt": 2702,
      "Ġsold": 2703,
      "Ġring": 2704,
      "lex": 2705,
      "Ġseason": 2706,
      "ĠMake": 2707,
      "Ġspec": 2708,
      "Ġpaying": 2709,
      "Ġimmedi": 2710,
      "Ġservices": 2711,
      "Ġbroke": 2712,
      "Ġmiddle": 2713,
      "app": 2714,
      "five": 2715,
      "Ġbur": 2716,
      "Ġrese": 2717,
      "ution": 2718,
      "Ġfunny": 2719,
      "Ġinternational": 2720,
      "Ġpictures": 2721,
      "ursday": 2722,
      "Ġpull": 2723,
      "Ġnatur": 2724,
      "ĠâĢĿ": 2725,
      "ĠChe": 2726,
      "Ġtruth": 2727,
      "Ġmistake": 2728,
      "50": 2729,
      "Ġcell": 2730,
      "iture": 2731,
      "Ġfire": 2732,
      "Ġworse": 2733,
      "ĠGod": 2734,
      "izz": 2735,
      "ology": 2736,
      "Ġmanagement": 2737,
      "ĠCompany": 2738,
      "Ġresults": 2739,
      "Ġrelationship": 2740,
      "Ġopinion": 2741,
      "Ġdut": 2742,
      "Ġdark": 2743,
      "ety": 2744,
      "une": 2745,
      "Ġenter": 2746,
      "Ġbeginning": 2747,
      "Ġarrive": 2748,
      "ĠOnly": 2749,
      "Ġconcert": 2750,
      "Where": 2751,
      "ma": 2752,
      "ina": 2753,
      "Ġcele": 2754,
      "Ġdish": 2755,
      "Ġpoll": 2756,
      "ĠAd": 2757,
      "Ġalright": 2758,
      "Ġdead": 2759,
      "Ġnose": 2760,
      "Ġremind": 2761,
      "ances": 2762,
      "Ġturned": 2763,
      "Ġactiv": 2764,
      "ĠShould": 2765,
      "Why": 2766,
      "Ġtemperature": 2767,
      "Ġchocolate": 2768,
      "Ġfifteen": 2769,
      "Ġcelebr": 2770,
      "book": 2771,
      "ilt": 2772,
      "Ġsometime": 2773,
      "ips": 2774,
      "Ġbottle": 2775,
      "Ġpan": 2776,
      "ĠWor": 2777,
      "Ġthrow": 2778,
      "lymp": 2779,
      "ĠOlymp": 2780,
      "vious": 2781,
      "zen": 2782,
      "Ġbal": 2783,
      "Ġdue": 2784,
      "Ġlab": 2785,
      "ĠDe": 2786,
      "Ġnote": 2787,
      "Ġsho": 2788,
      "Ġquit": 2789,
      "Ġexpected": 2790,
      "Ġbroken": 2791,
      "Ġreasonable": 2792,
      "Ġresponsib": 2793,
      "iar": 2794,
      "Ġfac": 2795,
      "ĠHot": 2796,
      "ured": 2797,
      "ĠThursday": 2798,
      "ograph": 2799,
      "Ġeducation": 2800,
      "Ġdegree": 2801,
      "che": 2802,
      "Ġbother": 2803,
      "Ġbody": 2804,
      "Ġlower": 2805,
      "ica": 2806,
      "ĠShanghai": 2807,
      "Ġstick": 2808,
      "Ġstory": 2809,
      "erence": 2810,
      "essert": 2811,
      "Ġkept": 2812,
      "Ġneighbor": 2813,
      "gent": 2814,
      "Ġmill": 2815,
      "ĠYuan": 2816,
      "Ġhi": 2817,
      "Ġkil": 2818,
      "eag": 2819,
      "pping": 2820,
      "Ġroll": 2821,
      "Ġunf": 2822,
      "ĠStreet": 2823,
      "Ġcommon": 2824,
      "Ġsubject": 2825,
      "Thank": 2826,
      "nel": 2827,
      "Ġdessert": 2828,
      "Ġgar": 2829,
      "Ġhoney": 2830,
      "ĠDay": 2831,
      "ĠEuro": 2832,
      "Ġflat": 2833,
      "Ġfurniture": 2834,
      "ienc": 2835,
      "land": 2836,
      "nis": 2837,
      "set": 2838,
      "Ġest": 2839,
      "rew": 2840,
      "Ġfantastic": 2841,
      "arant": 2842,
      "ute": 2843,
      "Ġsteak": 2844,
      "Ġant": 2845,
      "Ġsele": 2846,
      "Ġabroad": 2847,
      "ĠBrown": 2848,
      "Ġcomplain": 2849,
      "Ġideas": 2850,
      "Oh": 2851,
      "bed": 2852,
      "Ġfight": 2853,
      "Ġdra": 2854,
      "Ġnet": 2855,
      "ĠBill": 2856,
      "Ġanywhere": 2857,
      "Ġ16": 2858,
      "Ġsupport": 2859,
      "ĠKe": 2860,
      "Ġinspect": 2861,
      "Ġchanged": 2862,
      "Ġbathroom": 2863,
      "Ġalone": 2864,
      "Ġspicy": 2865,
      "Ġinvol": 2866,
      "Ġconditions": 2867,
      "Ġtraditional": 2868,
      "Well": 2869,
      "aim": 2870,
      "go": 2871,
      "oice": 2872,
      "Ġchat": 2873,
      "Ġfund": 2874,
      "ancial": 2875,
      "Ġoil": 2876,
      "used": 2877,
      "ĠLast": 2878,
      "ĠLike": 2879,
      "Ġrush": 2880,
      "Ġmoved": 2881,
      "ists": 2882,
      "ĠUm": 2883,
      "Ġseats": 2884,
      "Ġstandard": 2885,
      "Ġboxes": 2886,
      "board": 2887,
      "Ġfifty": 2888,
      "ials": 2889,
      "my": 2890,
      "Ġcig": 2891,
      "Ġcertain": 2892,
      "Ġborrow": 2893,
      "estern": 2894,
      "Ġgiving": 2895,
      "Ġknows": 2896,
      "Ġquar": 2897,
      "Ġsaving": 2898,
      "Ġsmart": 2899,
      "Ġcolleag": 2900,
      "ches": 2901,
      "lo": 2902,
      "Ġpity": 2903,
      "Ġnorm": 2904,
      "ĠAust": 2905,
      "Ġclos": 2906,
      "Ġplayer": 2907,
      "Ġdollar": 2908,
      "wards": 2909,
      "Ġconfirm": 2910,
      "Ġresponsible": 2911,
      "ertificate": 2912,
      "hood": 2913,
      "Ġhang": 2914,
      "eth": 2915,
      "Ġhung": 2916,
      "ĠNever": 2917,
      "Ġcareer": 2918,
      "Ġbread": 2919,
      "They": 2920,
      "Ġdancing": 2921,
      "Ġlicense": 2922,
      "Ġresearch": 2923,
      "ination": 2924,
      "Ġpet": 2925,
      "ĠAr": 2926,
      "urity": 2927,
      "Ġstaying": 2928,
      "ground": 2929,
      "Ġboring": 2930,
      "ying": 2931,
      "Ġways": 2932,
      "idence": 2933,
      "ĠDavid": 2934,
      "Ġtennis": 2935,
      "Ġmarketing": 2936,
      "Ġbags": 2937,
      "Ġrad": 2938,
      "ĠEven": 2939,
      "Ġexpress": 2940,
      "Ġeasily": 2941,
      "Ġallowed": 2942,
      "Ġwomen": 2943,
      "There": 2944,
      "gain": 2945,
      "Ġcult": 2946,
      "Ġbon": 2947,
      "Ġinf": 2948,
      "ĠSince": 2949,
      "ĠMic": 2950,
      "ĠRem": 2951,
      "Ġmoving": 2952,
      "Ġcalls": 2953,
      "apers": 2954,
      "Ġincluding": 2955,
      "val": 2956,
      "Ġtight": 2957,
      "ishing": 2958,
      "ĠHowever": 2959,
      "usan": 2960,
      "Ġprop": 2961,
      "action": 2962,
      "Ġguarant": 2963,
      "ĠStates": 2964,
      "Ġeasier": 2965,
      "ĠExactly": 2966,
      "Ġadvertise": 2967,
      "gest": 2968,
      "orn": 2969,
      "Ġforty": 2970,
      "ĠDan": 2971,
      "Ġexhib": 2972,
      "Ġcoat": 2973,
      "arden": 2974,
      "Ġoffic": 2975,
      "Ġflu": 2976,
      "Ġstarting": 2977,
      "Ġchall": 2978,
      "Ġraise": 2979,
      "Ġprescription": 2980,
      "Ġdrop": 2981,
      "kes": 2982,
      "nes": 2983,
      "oid": 2984,
      "uation": 2985,
      "Ġwalking": 2986,
      "Ġdraw": 2987,
      "Ġdoub": 2988,
      "Ġstom": 2989,
      "ĠCongratulations": 2990,
      "ules": 2991,
      "Ġrout": 2992,
      "umn": 2993,
      "Ġshows": 2994,
      "Ġ500": 2995,
      "Ġinclude": 2996,
      "Ġprofessional": 2997,
      "Ġpromotion": 2998,
      "Here": 2999,
      "light": 3000,
      "off": 3001,
      "Ġwat": 3002,
      "Ġcrow": 3003,
      "Ġband": 3004,
      "Ġjour": 3005,
      "ĠWhite": 3006,
      "Ġmissed": 3007,
      "Ġprepared": 3008,
      "Ġconcer": 3009,
      "Ġincrease": 3010,
      "Ġwebsite": 3011,
      "Ġcrowd": 3012,
      "\\'": 3013,
      "gar": 3014,
      "Ġnon": 3015,
      "oof": 3016,
      "ĠItal": 3017,
      "Ġsafe": 3018,
      "Ġbaggage": 3019,
      "ĠEveryone": 3020,
      "Ġdeliver": 3021,
      "Ġvarious": 3022,
      "Ġeggs": 3023,
      "ĠHotel": 3024,
      "Ġcreat": 3025,
      "Ġbat": 3026,
      "Ġbra": 3027,
      "Ġfail": 3028,
      "ĠCar": 3029,
      "ppy": 3030,
      "ellow": 3031,
      "itten": 3032,
      "Ġimag": 3033,
      "Ġfinancial": 3034,
      "Ġapolog": 3035,
      "Ġcaught": 3036,
      "Ġincluded": 3037,
      "Ġmembers": 3038,
      "Ġshipment": 3039,
      "ixt": 3040,
      "tain": 3041,
      "ooper": 3042,
      "ĠMar": 3043,
      "Ġlooked": 3044,
      "ĠSteven": 3045,
      "ĠAlso": 3046,
      "Ġinstru": 3047,
      "Ġmiles": 3048,
      "ĠJane": 3049,
      "Ġanimals": 3050,
      "ĠAustral": 3051,
      "ts": 3052,
      "Ġcal": 3053,
      "ering": 3054,
      "ĠWed": 3055,
      "rib": 3056,
      "Ġje": 3057,
      "Ġnoticed": 3058,
      "Ġdeep": 3059,
      "Ġvide": 3060,
      "Ġmonthly": 3061,
      "Ġsmell": 3062,
      "ĠGoodbye": 3063,
      "Ġcomputers": 3064,
      "Ġexperienc": 3065,
      "Ġfactory": 3066,
      "Ġcenter": 3067,
      "Ġbenefits": 3068,
      "Ġhungry": 3069,
      "nesday": 3070,
      "ĠWednesday": 3071,
      "ket": 3072,
      "wise": 3073,
      "orge": 3074,
      "anna": 3075,
      "Ġgives": 3076,
      "Ġweak": 3077,
      "ĠHong": 3078,
      "ĠApri": 3079,
      "elt": 3080,
      "arett": 3081,
      "Ġscen": 3082,
      "Ġmarri": 3083,
      "Ġpieces": 3084,
      "Ġimmediately": 3085,
      "ĠApril": 3086,
      "friend": 3087,
      "the": 3088,
      "Ġdanger": 3089,
      "ises": 3090,
      "Ġmeals": 3091,
      "Ġneeded": 3092,
      "Ġrice": 3093,
      "Ġtrust": 3094,
      "ĠThree": 3095,
      "Ġnights": 3096,
      "Ġkeeping": 3097,
      "ples": 3098,
      "Ġcolors": 3099,
      "Ġindustry": 3100,
      "Ġbonus": 3101,
      "Ġcause": 3102,
      "ĠâĢľ": 3103,
      "adays": 3104,
      "Ġappet": 3105,
      "Ġ24": 3106,
      "Ġuseful": 3107,
      "Ġformal": 3108,
      "Ġagreement": 3109,
      "sc": 3110,
      "Ġpower": 3111,
      "Ġstories": 3112,
      "Ġneck": 3113,
      "ĠBar": 3114,
      "Ġdem": 3115,
      "Ġspring": 3116,
      "Ġusual": 3117,
      "ĠFrom": 3118,
      "Ġhasn": 3119,
      "ĠUh": 3120,
      "Ġscore": 3121,
      "Ġinvite": 3122,
      "ival": 3123,
      "Ġtransport": 3124,
      "Ġadvance": 3125,
      "Ġsecretary": 3126,
      "Ġfault": 3127,
      "Ġengine": 3128,
      "Ġmotor": 3129,
      "oke": 3130,
      "Ġtur": 3131,
      "Ġwast": 3132,
      "Ġfever": 3133,
      "ĠExcuse": 3134,
      "ĠJo": 3135,
      "Ġlevel": 3136,
      "Ġlights": 3137,
      "Let": 3138,
      "When": 3139,
      "uce": 3140,
      "Ġhous": 3141,
      "ĠHis": 3142,
      "ĠMmm": 3143,
      "ĠBank": 3144,
      "Ġdecl": 3145,
      "Ġclients": 3146,
      "Ġeverybody": 3147,
      "Ġperhaps": 3148,
      "Ġwritten": 3149,
      "Ġbigger": 3150,
      "Ġpassed": 3151,
      "Ġvisa": 3152,
      "Ġcommission": 3153,
      "Ġfaster": 3154,
      "Ġcigarett": 3155,
      "cer": 3156,
      "ks": 3157,
      "ĠInd": 3158,
      "Ġtow": 3159,
      "Ġfax": 3160,
      "aches": 3161,
      "Ġsemes": 3162,
      "ĠMa": 3163,
      "ĠMike": 3164,
      "Ġwash": 3165,
      "Ġspare": 3166,
      "Ġ14": 3167,
      "Ġgroup": 3168,
      "Ġintroduce": 3169,
      "Ġguests": 3170,
      "Ġnatural": 3171,
      "izza": 3172,
      "Ġexport": 3173,
      "Ġspot": 3174,
      "Ġcheese": 3175,
      "Ġdrinking": 3176,
      "Ġearth": 3177,
      "Ġpainting": 3178,
      "Ġsuccessful": 3179,
      "Ġhoping": 3180,
      "bing": 3181,
      "Ġach": 3182,
      "Ġpool": 3183,
      "ĠMark": 3184,
      "Ġbuilt": 3185,
      "Ġkeeps": 3186,
      "rency": 3187,
      "ĠAbsolutely": 3188,
      "Ġpaint": 3189,
      "Ġprograms": 3190,
      "Ġgraduate": 3191,
      "Ġsurprised": 3192,
      "Ġurgent": 3193,
      "Ġfamiliar": 3194,
      "Ġcolleagues": 3195,
      "Ġsemester": 3196,
      "lim": 3197,
      "ror": 3198,
      "uct": 3199,
      "ĠX": 3200,
      "Ġtend": 3201,
      "Ġtough": 3202,
      "hand": 3203,
      "Ġpen": 3204,
      "ĠMadam": 3205,
      "Ġwashing": 3206,
      "ĠPl": 3207,
      "ĠGer": 3208,
      "Ġprot": 3209,
      "Ġpleasant": 3210,
      "Ġsmoke": 3211,
      "Ġtotally": 3212,
      "aul": 3213,
      "ole": 3214,
      "Ġrom": 3215,
      "Ġfirm": 3216,
      "Ġhob": 3217,
      "Ġwhatever": 3218,
      "ĠPark": 3219,
      "Ġbud": 3220,
      "ĠToday": 3221,
      "Ġborn": 3222,
      "ĠEurope": 3223,
      "ĠRemember": 3224,
      "Ġsitting": 3225,
      "Ġmood": 3226,
      "Ġfelt": 3227,
      "Ġsuits": 3228,
      "Ġrules": 3229,
      "Ġenc": 3230,
      "Ġener": 3231,
      "Ġarm": 3232,
      "Ġphys": 3233,
      "Ġinvited": 3234,
      "Ġmedium": 3235,
      "Ġarrived": 3236,
      "moking": 3237,
      "Ġcand": 3238,
      "ĠMac": 3239,
      "Ġamong": 3240,
      "ĠPar": 3241,
      "ĠGreen": 3242,
      "Ġcarp": 3243,
      "Ġstarts": 3244,
      "Ġlaund": 3245,
      "Ġstores": 3246,
      "Ġsweater": 3247,
      "ledge": 3248,
      "Ġgeneral": 3249,
      "Ġpurchase": 3250,
      "Ġtie": 3251,
      "Ġcart": 3252,
      "Ġport": 3253,
      "ĠSusan": 3254,
      "Ġnegot": 3255,
      "Ġplayed": 3256,
      "ĠAccount": 3257,
      "Ġmagazine": 3258,
      "Ġcommunic": 3259,
      "Ġapologize": 3260,
      "Ġnegoti": 3261,
      "gency": 3262,
      "Ġwra": 3263,
      "anish": 3264,
      "vered": 3265,
      "atives": 3266,
      "Ġjam": 3267,
      "ĠLin": 3268,
      "ĠPeter": 3269,
      "Ġcovered": 3270,
      "Ġhelpful": 3271,
      "Ġhomework": 3272,
      "ĠUnited": 3273,
      "Ġbottom": 3274,
      "Ġimpressed": 3275,
      "Ġduty": 3276,
      "Ġactivities": 3277,
      "Ġradio": 3278,
      "Ġdoubt": 3279,
      "ply": 3280,
      "Ġpm": 3281,
      "rill": 3282,
      "ĠCent": 3283,
      "ilar": 3284,
      "Ġski": 3285,
      "Ġexpecting": 3286,
      "Ġdogs": 3287,
      "ined": 3288,
      "Ġcab": 3289,
      "ĠMan": 3290,
      "ivered": 3291,
      "Ġru": 3292,
      "Ġdisapp": 3293,
      "Ġ300": 3294,
      "Ġolder": 3295,
      "Ġdelivered": 3296,
      "Ġdivor": 3297,
      "Ġmarriage": 3298,
      "Ġlaundry": 3299,
      "ron": 3300,
      "uly": 3301,
      "Ġtill": 3302,
      "Ġfried": 3303,
      "ĠTry": 3304,
      "Ġdozen": 3305,
      "Ġang": 3306,
      "ading": 3307,
      "ĠCor": 3308,
      "ĠGu": 3309,
      "ĠEm": 3310,
      "ptions": 3311,
      "Ġfinding": 3312,
      "Ġleaves": 3313,
      "Ġreserve": 3314,
      "Ġtext": 3315,
      "Ġfriendly": 3316,
      "Ġfoods": 3317,
      "Ġshape": 3318,
      "Ġvisiting": 3319,
      "Ġserve": 3320,
      "ployment": 3321,
      "Ġfilms": 3322,
      "Ġcurrency": 3323,
      "Ġbasket": 3324,
      "Ġrespect": 3325,
      "Ġissue": 3326,
      "Ġspecific": 3327,
      "Ġvideo": 3328,
      "case": 3329,
      "lies": 3330,
      "nic": 3331,
      "ners": 3332,
      "Ġmap": 3333,
      "Ġmix": 3334,
      "Ġcooper": 3335,
      "Ġpo": 3336,
      "Ġpoor": 3337,
      "ĠâĢĶ": 3338,
      "idge": 3339,
      "alent": 3340,
      "Ġlives": 3341,
      "amed": 3342,
      "ĠPre": 3343,
      "itted": 3344,
      "Ġappli": 3345,
      "Ġguide": 3346,
      "ipe": 3347,
      "Ġmostly": 3348,
      "Ġnearly": 3349,
      "Ġvalue": 3350,
      "ĠSpanish": 3351,
      "vision": 3352,
      "Ġmis": 3353,
      "Ġcross": 3354,
      "itude": 3355,
      "Ġgarden": 3356,
      "Ġnut": 3357,
      "ara": 3358,
      "Ġemer": 3359,
      "Ġcancel": 3360,
      "Ġcomplic": 3361,
      "Ġlocated": 3362,
      "ĠQu": 3363,
      "Ġstomach": 3364,
      "night": 3365,
      "Ġcir": 3366,
      "Ġdad": 3367,
      "ley": 3368,
      "Ġrepl": 3369,
      "ĠPaul": 3370,
      "Ġcock": 3371,
      "Ġmoder": 3372,
      "Ġsauce": 3373,
      "Ġdescribe": 3374,
      "Ġskirt": 3375,
      "Ġsuggestions": 3376,
      "Ġtraveling": 3377,
      "Ġheadache": 3378,
      "Ġmachines": 3379,
      "Ġmodel": 3380,
      "ĠJapanese": 3381,
      "Ġassistant": 3382,
      "rant": 3383,
      "sing": 3384,
      "Ġwood": 3385,
      "Ġban": 3386,
      "Ġfile": 3387,
      "isk": 3388,
      "Ġlos": 3389,
      "vell": 3390,
      "ify": 3391,
      "Ġorig": 3392,
      "Ġupset": 3393,
      "Ġhelps": 3394,
      "Ġnumbers": 3395,
      "Ġground": 3396,
      "Ġwearing": 3397,
      "Ġautom": 3398,
      "Ġcontinue": 3399,
      "Ġguarantee": 3400,
      "Mr": 3401,
      "ued": 3402,
      "Ġtree": 3403,
      "Ġwake": 3404,
      "Ġbright": 3405,
      "Ġbase": 3406,
      "Ġtor": 3407,
      "Ġfare": 3408,
      "Ġdig": 3409,
      "Ġnational": 3410,
      "ĠWon": 3411,
      "Ġeffic": 3412,
      "Ġreach": 3413,
      "ĠHer": 3414,
      "ĠSec": 3415,
      "Ġknowledge": 3416,
      "Ġfeet": 3417,
      "icks": 3418,
      "Ġ13": 3419,
      "Ġtrack": 3420,
      "Ġhimself": 3421,
      "Ġacross": 3422,
      "Ġcleaning": 3423,
      "Ġlistening": 3424,
      "Ġboyfriend": 3425,
      "Ġcampus": 3426,
      "Ġachieve": 3427,
      "uri": 3428,
      "Ġsam": 3429,
      "Ġbow": 3430,
      "orth": 3431,
      "ĠHar": 3432,
      "aking": 3433,
      "Ġretire": 3434,
      "Ġorganiz": 3435,
      "Ġattractive": 3436,
      "Ġscience": 3437,
      "market": 3438,
      "vin": 3439,
      "Ġmark": 3440,
      "Ġmouth": 3441,
      "ison": 3442,
      "Ġliter": 3443,
      "enny": 3444,
      "Ġbeat": 3445,
      "ĠAir": 3446,
      "Ġstam": 3447,
      "iring": 3448,
      "ops": 3449,
      "Ġbecom": 3450,
      "Ġproduction": 3451,
      "Ġnearby": 3452,
      "Ġgraduated": 3453,
      "Ġdocument": 3454,
      "Ġdirectly": 3455,
      "Ġsoftware": 3456,
      "Ġdamage": 3457,
      "Ġhuman": 3458,
      "ex": 3459,
      "how": 3460,
      "ires": 3461,
      "te": 3462,
      "estival": 3463,
      "elcome": 3464,
      "Ġrich": 3465,
      "Ġclaim": 3466,
      "Ġadm": 3467,
      "Ġdepart": 3468,
      "Ġbiggest": 3469,
      "upid": 3470,
      "Ġsmaller": 3471,
      "Ġfully": 3472,
      "Ġsimply": 3473,
      "Ġphotos": 3474,
      "Ġhuge": 3475,
      "Ġorigin": 3476,
      "Welcome": 3477,
      "XX": 3478,
      "Ġpizza": 3479,
      "ownt": 3480,
      "ĠOff": 3481,
      "Ġsugar": 3482,
      "Ġplastic": 3483,
      "Ġrob": 3484,
      "Ġvot": 3485,
      "Ġbuses": 3486,
      "Ġdrug": 3487,
      "Ġadvant": 3488,
      "Ġadvertising": 3489,
      "ĠRoom": 3490,
      "Ġsandw": 3491,
      "Ġdangerous": 3492,
      "rest": 3493,
      "Ġwanna": 3494,
      "Ġbrown": 3495,
      "seum": 3496,
      "Ġability": 3497,
      "Ġagre": 3498,
      "Ġ21": 3499,
      "Ġfeels": 3500,
      "Ġchamp": 3501,
      "Ġshower": 3502,
      "gging": 3503,
      "Ġexcuse": 3504,
      "Ġstrange": 3505,
      "Ġsituation": 3506,
      "Ġsuitable": 3507,
      "Ġbills": 3508,
      "Ġselling": 3509,
      "Ġequip": 3510,
      "Ġcomplicated": 3511,
      "Ġdest": 3512,
      "Ġdownt": 3513,
      "vey": 3514,
      "Ġheld": 3515,
      "ĠHope": 3516,
      "ĠSe": 3517,
      "ĠOct": 3518,
      "ĠCal": 3519,
      "urch": 3520,
      "Ġnowadays": 3521,
      "Ġroses": 3522,
      "Ġminimum": 3523,
      "Ġstayed": 3524,
      "Ġstrict": 3525,
      "Ġletters": 3526,
      "Ġmagazines": 3527,
      "Ġmaterials": 3528,
      "ĠAustralia": 3529,
      "Ġwaste": 3530,
      "ds": 3531,
      "ls": 3532,
      "Ġ:": 3533,
      "inary": 3534,
      "Ġsou": 3535,
      "ĠYear": 3536,
      "Ġlimit": 3537,
      "ĠWelcome": 3538,
      "ĠRob": 3539,
      "Ġeveryday": 3540,
      "Ġeverywhere": 3541,
      "ĠCanad": 3542,
      "cient": 3543,
      "Ġparts": 3544,
      "duction": 3545,
      "iction": 3546,
      "Ġmeters": 3547,
      "Ġdetail": 3548,
      "Ġdaily": 3549,
      "Ġtelevision": 3550,
      "Ġvariet": 3551,
      "Ġhurts": 3552,
      "Ġsquare": 3553,
      "Ġinvolved": 3554,
      "Ġexhibition": 3555,
      "men": 3556,
      "Ġet": 3557,
      "Ġcertificate": 3558,
      "Ġbike": 3559,
      "Ġloud": 3560,
      "Ġreview": 3561,
      "Ġhire": 3562,
      "Ġsport": 3563,
      "Ġfees": 3564,
      "Ġhelping": 3565,
      "Ġvol": 3566,
      "Ġbackground": 3567,
      "Ġsecurity": 3568,
      "Ġopening": 3569,
      "Ġbargain": 3570,
      "Ġsavings": 3571,
      "Ġprotect": 3572,
      "aught": 3573,
      "ury": 3574,
      "itation": 3575,
      "Ġpage": 3576,
      "Ġev": 3577,
      "Ġheat": 3578,
      "Ġmeas": 3579,
      "ĠHu": 3580,
      "ĠHel": 3581,
      "ĠSay": 3582,
      "ĠSep": 3583,
      "ĠOther": 3584,
      "Ġabs": 3585,
      "pper": 3586,
      "Ġmuseum": 3587,
      "Ġourselves": 3588,
      "istic": 3589,
      "Ġnoise": 3590,
      "Ġscared": 3591,
      "Ġcarefully": 3592,
      "Ġschools": 3593,
      "Ġ80": 3594,
      "Ġelev": 3595,
      "Ġsurprise": 3596,
      "Ġinspection": 3597,
      "Ġ0": 3598,
      "Ġsixt": 3599,
      "Ġfell": 3600,
      "Ġhall": 3601,
      "Ġrange": 3602,
      "ober": 3603,
      "Ġharder": 3604,
      "ension": 3605,
      "Ġchanges": 3606,
      "Ġfixed": 3607,
      "Ġflying": 3608,
      "ĠKeep": 3609,
      "ĠItalian": 3610,
      "iam": 3611,
      "sy": 3612,
      "read": 3613,
      "Ġpush": 3614,
      "Ġowe": 3615,
      "ster": 3616,
      "stairs": 3617,
      "seas": 3618,
      "ĠHold": 3619,
      "irty": 3620,
      "Ġknown": 3621,
      "acket": 3622,
      "Ġprin": 3623,
      "employment": 3624,
      "Ġunderstanding": 3625,
      "Ġavoid": 3626,
      "Ġsurf": 3627,
      "Ġwarrant": 3628,
      "Ġrefund": 3629,
      "Ġpoints": 3630,
      "Ġsupermarket": 3631,
      "Ġelectric": 3632,
      "Ġcrowded": 3633,
      "Ġut": 3634,
      "Ġsilly": 3635,
      "itor": 3636,
      "Ġbell": 3637,
      "Ġhell": 3638,
      "rible": 3639,
      "Ġsuff": 3640,
      "ĠPC": 3641,
      "Ġcode": 3642,
      "Ġloves": 3643,
      "Ġemail": 3644,
      "Ġpossib": 3645,
      "Ġyounger": 3646,
      "Ġcomplete": 3647,
      "ique": 3648,
      "Ġneighborhood": 3649,
      "Ġchalleng": 3650,
      "ĠParis": 3651,
      "Ġcarpet": 3652,
      "Ġangry": 3653,
      "ĠOctober": 3654,
      "bly": 3655,
      "iol": 3656,
      "mber": 3657,
      "vis": 3658,
      "Ġcities": 3659,
      "Ġbi": 3660,
      "itch": 3661,
      "acy": 3662,
      "ĠOnce": 3663,
      "ĠDr": 3664,
      "Ġsocial": 3665,
      "Ġspo": 3666,
      "elve": 3667,
      "isten": 3668,
      "Ġ17": 3669,
      "Ġhelped": 3670,
      "Ġvoice": 3671,
      "Ġstudied": 3672,
      "ĠKong": 3673,
      "Ġconference": 3674,
      "Ġpacking": 3675,
      "Ġrequest": 3676,
      "ĠAccording": 3677,
      "Ġcharacter": 3678,
      "Ġoccas": 3679,
      "Ġbalance": 3680,
      "Ġdowntown": 3681,
      "fic": 3682,
      "par": 3683,
      "Ġcere": 3684,
      "erved": 3685,
      "ites": 3686,
      "orter": 3687,
      "ĠMore": 3688,
      "ources": 3689,
      "using": 3690,
      "Ġoverseas": 3691,
      "abl": 3692,
      "new": 3693,
      "Ġmath": 3694,
      "Ġ90": 3695,
      "Ġseriously": 3696,
      "Ġbasic": 3697,
      "Ġsimilar": 3698,
      "Ġimpression": 3699,
      "Ġordered": 3700,
      "poration": 3701,
      "Ġimagine": 3702,
      "uf": 3703,
      "isle": 3704,
      "iding": 3705,
      "ached": 3706,
      "Ġran": 3707,
      "ards": 3708,
      "Ġterribly": 3709,
      "Ġorders": 3710,
      "Ġregistered": 3711,
      "ĠOffice": 3712,
      "55": 3713,
      "da": 3714,
      "oun": 3715,
      "Ġtoast": 3716,
      "arling": 3717,
      "ĠAm": 3718,
      "Ġsearch": 3719,
      "irus": 3720,
      "tery": 3721,
      "Ġnotes": 3722,
      "Ġclosed": 3723,
      "Ġsurely": 3724,
      "Ġchurch": 3725,
      "ĠUs": 3726,
      "Ġhardly": 3727,
      "Ġrare": 3728,
      "Ġlanguages": 3729,
      "Ġpotat": 3730,
      "Ġhuh": 3731,
      "Ġcases": 3732,
      "Ġcelebrate": 3733,
      "Ġmillion": 3734,
      "Ġwatched": 3735,
      "Ġmodern": 3736,
      "dden": 3737,
      "Ġpic": 3738,
      "ows": 3739,
      "icles": 3740,
      "Ġstupid": 3741,
      "Ġkick": 3742,
      "ĠWhatever": 3743,
      "Ġjump": 3744,
      "ĠBus": 3745,
      "Ġsudden": 3746,
      "iling": 3747,
      "ĠPerson": 3748,
      "Ġaffect": 3749,
      "Ġvote": 3750,
      "Ġchem": 3751,
      "Ġrealize": 3752,
      "Ġextre": 3753,
      "Ġdirector": 3754,
      "Ġdirection": 3755,
      "Ġ150": 3756,
      "Ġprepar": 3757,
      "Ġopportunities": 3758,
      "Ġcandid": 3759,
      "Ġbasketball": 3760,
      "Ġvariety": 3761,
      "Ġcable": 3762,
      "Ġdial": 3763,
      "Ġmeant": 3764,
      "Ġlived": 3765,
      "Ġsepar": 3766,
      "ceed": 3767,
      "Ġads": 3768,
      "ability": 3769,
      "Ġunemployment": 3770,
      "Ġsett": 3771,
      "Ġpromised": 3772,
      "Ġexams": 3773,
      "Ġbased": 3774,
      "Ġcrit": 3775,
      "Ġeconomy": 3776,
      "Ġcharges": 3777,
      "Ġencour": 3778,
      "Ġdisappoint": 3779,
      "coh": 3780,
      "year": 3781,
      "reng": 3782,
      "erry": 3783,
      "ĠTra": 3784,
      "Ġlift": 3785,
      "ĠCool": 3786,
      "Ġsomebody": 3787,
      "Ġoffers": 3788,
      "Ġroast": 3789,
      "venir": 3790,
      "Ġtalked": 3791,
      "Ġfiles": 3792,
      "hard": 3793,
      "Ġsatisfied": 3794,
      "Ġbudget": 3795,
      "Ġelevator": 3796,
      "cohol": 3797,
      "fortunately": 3798,
      "hold": 3799,
      "yd": 3800,
      "Ġsle": 3801,
      "ane": 3802,
      "ado": 3803,
      "aker": 3804,
      "Ġrock": 3805,
      "Ġviol": 3806,
      "Ġnobody": 3807,
      "Ġunit": 3808,
      "Ġmeetings": 3809,
      "Ġmarry": 3810,
      "Ġemployee": 3811,
      "Ġarticle": 3812,
      "Ġaware": 3813,
      "Now": 3814,
      "back": 3815,
      "Ġaud": 3816,
      "Ġmas": 3817,
      "Ġmall": 3818,
      "Ġlay": 3819,
      "Ġlady": 3820,
      "Ġforms": 3821,
      "ĠListen": 3822,
      "ĠJune": 3823,
      "Ġgotten": 3824,
      "Ġtwelve": 3825,
      "Ġaccess": 3826,
      "Ġdecor": 3827,
      "Ġaccounts": 3828,
      "Ġemb": 3829,
      "Ġincludes": 3830,
      "ĠUnfortunately": 3831,
      "ĠHappy": 3832,
      "Ġannual": 3833,
      "Ġquarter": 3834,
      "Ġnormal": 3835,
      "ĠSept": 3836,
      "hou": 3837,
      "iel": 3838,
      "Ġsad": 3839,
      "Ġwet": 3840,
      "Ġbesides": 3841,
      "Ġrenew": 3842,
      "asons": 3843,
      "Ġancient": 3844,
      "Ġplus": 3845,
      "ptop": 3846,
      "Ġweren": 3847,
      "Ġleather": 3848,
      "ĠKing": 3849,
      "Ġaccounting": 3850,
      "lets": 3851,
      "Ġchoices": 3852,
      "Ġsuggestion": 3853,
      "ĠMonica": 3854,
      "Ġtests": 3855,
      "Ġhorrible": 3856,
      "Ġbreath": 3857,
      "ĠBlack": 3858,
      "Ġdemand": 3859,
      "ĠPretty": 3860,
      "Will": 3861,
      "sp": 3862,
      "Ġble": 3863,
      "omas": 3864,
      "Ġfort": 3865,
      "idays": 3866,
      "riger": 3867,
      "Ġstreng": 3868,
      "ĠCur": 3869,
      "Ġasleep": 3870,
      "Ġconvers": 3871,
      "ĠEn": 3872,
      "Ġparties": 3873,
      "Ġputting": 3874,
      "Ġsched": 3875,
      "Ġhighly": 3876,
      "Ġ60": 3877,
      "Ġlarger": 3878,
      "Ġentertain": 3879,
      "Ġcute": 3880,
      "Ġrefriger": 3881,
      "Ġemergency": 3882,
      "Ġsouvenir": 3883,
      "ĠSeptember": 3884,
      "25": 3885,
      "food": 3886,
      "mates": 3887,
      "isy": 3888,
      "Ġlad": 3889,
      "Ġgate": 3890,
      "oms": 3891,
      "ĠTe": 3892,
      "see": 3893,
      "roat": 3894,
      "Ġgold": 3895,
      "though": 3896,
      "Ġcomb": 3897,
      "Ġconst": 3898,
      "Ġregister": 3899,
      "ivid": 3900,
      "Ġpositive": 3901,
      "Ġpleased": 3902,
      "Ġmedical": 3903,
      "Ġsnack": 3904,
      "ĠBrit": 3905,
      "ĠWorld": 3906,
      "Ġselect": 3907,
      "Ġbecoming": 3908,
      "Ġpicnic": 3909,
      "Look": 3910,
      "ians": 3911,
      "ipping": 3912,
      "lines": 3913,
      "Ġtap": 3914,
      "Ġaisle": 3915,
      "Ġwide": 3916,
      "Ġpapers": 3917,
      "atic": 3918,
      "Ġthroat": 3919,
      "ĠHoney": 3920,
      "ential": 3921,
      "ĠWere": 3922,
      "ulation": 3923,
      "ĠFin": 3924,
      "Ġlob": 3925,
      "Ġappear": 3926,
      "Ġperm": 3927,
      "Ġuncle": 3928,
      "Ġscreen": 3929,
      "Ġtrains": 3930,
      "Ġstops": 3931,
      "Ġevents": 3932,
      "Ġqualified": 3933,
      "Ġsuitcase": 3934,
      "ĠAnn": 3935,
      "Ġtastes": 3936,
      "ĠTomorrow": 3937,
      "Ġkeys": 3938,
      "Ġawful": 3939,
      "ĠInternational": 3940,
      "Ġdelay": 3941,
      "Ġconcerned": 3942,
      "ĠGerman": 3943,
      "Ġtorn": 3944,
      "Ġrefrigerator": 3945,
      "45": 3946,
      "hael": 3947,
      "Ġcri": 3948,
      "Ġincome": 3949,
      "ĠSouth": 3950,
      "Ġstri": 3951,
      "ĠCo": 3952,
      "inda": 3953,
      "ulous": 3954,
      "ĠGe": 3955,
      "Ġarg": 3956,
      "Ġstopped": 3957,
      "Ġfoc": 3958,
      "ĠAmericans": 3959,
      "Ġended": 3960,
      "Ġaccepted": 3961,
      "Ġassign": 3962,
      "rupt": 3963,
      "Ġauth": 3964,
      "load": 3965,
      "Don": 3966,
      "rees": 3967,
      "Ġcry": 3968,
      "Ġfries": 3969,
      "Ġthin": 3970,
      "Ġbear": 3971,
      "alog": 3972,
      "Ġstuck": 3973,
      "ĠEl": 3974,
      "ĠJuly": 3975,
      "agne": 3976,
      "Ġlease": 3977,
      "Ġclassical": 3978,
      "play": 3979,
      "Ġrelig": 3980,
      "Ġreception": 3981,
      "Ġcasual": 3982,
      "Ġregistration": 3983,
      "Ġresponsibility": 3984,
      "Ġjourney": 3985,
      "Ġsandwich": 3986,
      "ufact": 3987,
      "BA": 3988,
      "Please": 3989,
      "ugh": 3990,
      "isc": 3991,
      "Ġbeha": 3992,
      "ĠCity": 3993,
      "Ġshot": 3994,
      "Ġbutton": 3995,
      "ĠGot": 3996,
      "Ġnoon": 3997,
      "Ġnovel": 3998,
      "Ġdining": 3999,
      "Ġimpressive": 4000,
      "Ġclearly": 4001,
      "Ġdevelopment": 4002,
      "together": 4003,
      "Ġseafood": 4004,
      "Ġsilk": 4005,
      "ĠOlympic": 4006,
      "Ġappetiz": 4007,
      "Ġenergy": 4008,
      "ĠCanada": 4009,
      "eal": 4010,
      "Ġtooth": 4011,
      "ird": 4012,
      "ĠBet": 4013,
      "urse": 4014,
      "Ġorange": 4015,
      "Ġload": 4016,
      "Ġclient": 4017,
      "Ġtravell": 4018,
      "Ġmanufact": 4019,
      "Ġchair": 4020,
      "anced": 4021,
      "ĠFrance": 4022,
      "Ġdressing": 4023,
      "Ġ120": 4024,
      "Ġprofit": 4025,
      "Ġrelaxed": 4026,
      "Ġholidays": 4027,
      "Ġgifts": 4028,
      "Ġfrequ": 4029,
      "ĠDeposit": 4030,
      "Ġblocks": 4031,
      "Ġdigital": 4032,
      "Ġetc": 4033,
      "ĠUsually": 4034,
      "10": 4035,
      "She": 4036,
      "ey": 4037,
      "just": 4038,
      "pes": 4039,
      "xic": 4040,
      "Ġpian": 4041,
      "Ġlie": 4042,
      "Ġlim": 4043,
      "Ġself": 4044,
      "ĠLee": 4045,
      "ĠPM": 4046,
      "ĠPut": 4047,
      "Ġthemselves": 4048,
      "Ġunless": 4049,
      "Ġindeed": 4050,
      "Ġrepair": 4051,
      "Ġreplace": 4052,
      "Ġauthor": 4053,
      "ald": 4054,
      "Ġing": 4055,
      "Ġded": 4056,
      "ĠApp": 4057,
      "Ġgod": 4058,
      "antic": 4059,
      "ĠBoth": 4060,
      "Ġalcohol": 4061,
      "Ġmob": 4062,
      "Ġages": 4063,
      "Ġagency": 4064,
      "Ġarrest": 4065,
      "venue": 4066,
      "izes": 4067,
      "duced": 4068,
      "ĠEngland": 4069,
      "Ġattitude": 4070,
      "Ġbeauty": 4071,
      "Ġexpenses": 4072,
      "Ġslip": 4073,
      "Ġrestaurants": 4074,
      "Ġveh": 4075,
      "ĠSomeone": 4076,
      "Ġpurp": 4077,
      "Ġapplying": 4078,
      "Ġchanging": 4079,
      "Ġphotograph": 4080,
      "Ġcatalog": 4081,
      "Ġlegal": 4082,
      "ĠRoad": 4083,
      "Ġmountains": 4084,
      "Ġtypes": 4085,
      "Ġcharacters": 4086,
      "Ġinfl": 4087,
      "ĠBarb": 4088,
      "Ġcigarettes": 4089,
      "Ġlosing": 4090,
      "Ġstrength": 4091,
      "Ġingred": 4092,
      "fess": 4093,
      "gress": 4094,
      "rance": 4095,
      "zz": 4096,
      "zhou": 4097,
      "Ġwestern": 4098,
      "Ġmax": 4099,
      "Ġcous": 4100,
      "Ġtoil": 4101,
      "inger": 4102,
      "isa": 4103,
      "ism": 4104,
      "ĠTurn": 4105,
      "verage": 4106,
      "Ġplum": 4107,
      "ĠFive": 4108,
      "ief": 4109,
      "Ġquant": 4110,
      "ĠJul": 4111,
      "Ġagent": 4112,
      "epend": 4113,
      "Ġdisp": 4114,
      "ĠBefore": 4115,
      "Ġboat": 4116,
      "iversary": 4117,
      "Ġlaugh": 4118,
      "Ġperfectly": 4119,
      "Ġactive": 4120,
      "ĠExcellent": 4121,
      "Ġfigures": 4122,
      "Ġordinary": 4123,
      "Ġboarding": 4124,
      "Ġmaterial": 4125,
      "Ġtrees": 4126,
      "Ġrule": 4127,
      "Ġoccasion": 4128,
      "mate": 4129,
      "Ġsen": 4130,
      "ĠTime": 4131,
      "key": 4132,
      "ental": 4133,
      "ĠChen": 4134,
      "Ġshut": 4135,
      "ĠRic": 4136,
      "Ġapple": 4137,
      "Ġcontrib": 4138,
      "ĠLooks": 4139,
      "Ġbasis": 4140,
      "Ġstyles": 4141,
      "Ġcentre": 4142,
      "Ġwallet": 4143,
      "Ġconnection": 4144,
      "Ġestabl": 4145,
      "Ġtransportation": 4146,
      "Ġequipment": 4147,
      "Ġingredients": 4148,
      "cast": 4149,
      "house": 4150,
      "mon": 4151,
      "oors": 4152,
      "Ġyellow": 4153,
      "Ġbid": 4154,
      "Ġdum": 4155,
      "Ġgain": 4156,
      "ases": 4157,
      "ĠSand": 4158,
      "Ġexact": 4159,
      "raft": 4160,
      "uled": 4161,
      "ĠRes": 4162,
      "Ġprevious": 4163,
      "Ġident": 4164,
      "Ġdepress": 4165,
      "Ġsky": 4166,
      "Ġopened": 4167,
      "Ġweekends": 4168,
      "Ġinstall": 4169,
      "Ġstanding": 4170,
      "Ġterrific": 4171,
      "Ġtourist": 4172,
      "ĠMexic": 4173,
      "ĠJohnson": 4174,
      "ĠPerfect": 4175,
      "ĠProbably": 4176,
      "unte": 4177,
      "Ġadvertisement": 4178,
      "Ġjeans": 4179,
      "Ġagreed": 4180,
      "Ġwarranty": 4181,
      "cut": 4182,
      "ker": 4183,
      "ram": 4184,
      "Ġaction": 4185,
      "Ġsouth": 4186,
      "Ġcine": 4187,
      "Ġbri": 4188,
      "Ġfed": 4189,
      "Ġdarling": 4190,
      "Ġears": 4191,
      "ĠCon": 4192,
      "Ġplant": 4193,
      "Ġoffices": 4194,
      "hings": 4195,
      "Ġnoisy": 4196,
      "Ġflav": 4197,
      "ossible": 4198,
      "Ġshar": 4199,
      "Ġmissing": 4200,
      "Ġacting": 4201,
      "Ġrepres": 4202,
      "Ġanniversary": 4203,
      "Ġfalling": 4204,
      "Ġclimate": 4205,
      "Ġsolve": 4206,
      "Ġrequirements": 4207,
      "Ġwrap": 4208,
      "Ġcirc": 4209,
      "Ġretirement": 4210,
      "Ġchampagne": 4211,
      "Ġsettled": 4212,
      "Ġmobile": 4213,
      "cher": 4214,
      "law": 4215,
      "rated": 4216,
      "what": 4217,
      "Ġdat": 4218,
      "Ġdied": 4219,
      "Ġhost": 4220,
      "term": 4221,
      "ĠLe": 4222,
      "ĠGl": 4223,
      "aging": 4224,
      "Ġchequ": 4225,
      "Ġsaf": 4226,
      "orms": 4227,
      "Ġmeaning": 4228,
      "Ġplayers": 4229,
      "Ġshowing": 4230,
      "Ġsupplies": 4231,
      "ĠStud": 4232,
      "Ġrelated": 4233,
      "ĠFrank": 4234,
      "Ġlaptop": 4235,
      "Ġspending": 4236,
      "Ġsurv": 4237,
      "ification": 4238,
      "Ġindepend": 4239,
      "Ġincred": 4240,
      "Ġcameras": 4241,
      "Ġsongs": 4242,
      "ĠGrand": 4243,
      "Ġpollution": 4244,
      "ĠMichael": 4245,
      "Ġefficient": 4246,
      "ted": 4247,
      "under": 4248,
      "Ġer": 4249,
      "Ġsens": 4250,
      "Ġsides": 4251,
      "ero": 4252,
      "Ġhabit": 4253,
      "ĠTim": 4254,
      "Ġreduce": 4255,
      "ĠServ": 4256,
      "ama": 4257,
      "uses": 4258,
      "ĠLuc": 4259,
      "ĠEach": 4260,
      "Ġchess": 4261,
      "Ġexpl": 4262,
      "Ġunits": 4263,
      "Ġblow": 4264,
      "ĠStop": 4265,
      "Ġinviting": 4266,
      "Ġinvitation": 4267,
      "Ġfilled": 4268,
      "Ġsmooth": 4269,
      "Ġseemed": 4270,
      "Ġrelaxing": 4271,
      "Ġrecords": 4272,
      "ĠDepartment": 4273,
      "ĠOlympics": 4274,
      "Ġresponsibilities": 4275,
      "Ġdeclare": 4276,
      "ĠQuite": 4277,
      "ĠSecond": 4278,
      "Ġliterature": 4279,
      "seeing": 4280,
      "ĠGeorge": 4281,
      "15": 4282,
      "bies": 4283,
      "met": 4284,
      "you": 4285,
      "Ġtalent": 4286,
      "Ġtaught": 4287,
      "Ġmass": 4288,
      "Ġmaster": 4289,
      "anch": 4290,
      "Ġgen": 4291,
      "Ġoptions": 4292,
      "Ġareas": 4293,
      "ctions": 4294,
      "Ġproduce": 4295,
      "asty": 4296,
      "Ġspl": 4297,
      "ĠFour": 4298,
      "Ġlock": 4299,
      "olen": 4300,
      "ĠAren": 4301,
      "Ġremain": 4302,
      "Ġadditional": 4303,
      "Ġconsum": 4304,
      "Ġsurvey": 4305,
      "Ġsubs": 4306,
      "Ġmessages": 4307,
      "Ġdistance": 4308,
      "ĠWashing": 4309,
      "Ġhouses": 4310,
      "Ġhello": 4311,
      "ĠBusiness": 4312,
      "ĠRichard": 4313,
      "20": 4314,
      "TM": 4315,
      "rate": 4316,
      "Ġmad": 4317,
      "Ġpal": 4318,
      "ĠWall": 4319,
      "Ġinit": 4320,
      "ĠThings": 4321,
      "Ġreasons": 4322,
      "ĠHum": 4323,
      "ĠATM": 4324,
      "ĠSing": 4325,
      "Ġstations": 4326,
      "Ġstraw": 4327,
      "ĠDef": 4328,
      "Ġjum": 4329,
      "ĠBel": 4330,
      "ural": 4331,
      "Ġrough": 4332,
      "ĠEconom": 4333,
      "Ġchest": 4334,
      "Ġbucks": 4335,
      "Ġperf": 4336,
      "Ġdisplay": 4337,
      "Ġaccountant": 4338,
      "Ġearn": 4339,
      "Ġserved": 4340,
      "Ġsinging": 4341,
      "Ġinterviewer": 4342,
      "Ġentrance": 4343,
      "Ġbasically": 4344,
      "Ġteams": 4345,
      "Ġmaintain": 4346,
      "ĠCheck": 4347,
      "Ġshoot": 4348,
      "Ġculture": 4349,
      "fessor": 4350,
      "SA": 4351,
      "ged": 4352,
      "spect": 4353,
      "smoking": 4354,
      "yle": 4355,
      "Ġfool": 4356,
      "Ġpound": 4357,
      "atures": 4358,
      "ĠYep": 4359,
      "ĠAug": 4360,
      "imate": 4361,
      "Ġstolen": 4362,
      "Ġgoal": 4363,
      "ĠCD": 4364,
      "iforn": 4365,
      "hern": 4366,
      "Ġplate": 4367,
      "ĠPh": 4368,
      "osh": 4369,
      "ĠGener": 4370,
      "ĠEr": 4371,
      "ĠJames": 4372,
      "ĠJenny": 4373,
      "Ġpeace": 4374,
      "Ġchecks": 4375,
      "Ġunus": 4376,
      "Ġadded": 4377,
      "ĠAlice": 4378,
      "Ġconfident": 4379,
      "Ġdealing": 4380,
      "Ġtraveler": 4381,
      "Ġpresentation": 4382,
      "Ġgraduation": 4383,
      "Which": 4384,
      "Ġclimb": 4385,
      "Ġslowly": 4386,
      "Ġnetwork": 4387,
      "Ġfailed": 4388,
      "ĠCaliforn": 4389,
      "Ġtoilet": 4390,
      "Ġquantity": 4391,
      "Ġsafety": 4392,
      "aign": 4393,
      "mony": 4394,
      "Ġess": 4395,
      "Ġtail": 4396,
      "Ġaverage": 4397,
      "erg": 4398,
      "Ġfan": 4399,
      "att": 4400,
      "aylor": 4401,
      "ĠSa": 4402,
      "ĠSal": 4403,
      "ĠSpr": 4404,
      "Ġstat": 4405,
      "ĠColl": 4406,
      "ĠBas": 4407,
      "Ġbye": 4408,
      "Ġshelf": 4409,
      "agement": 4410,
      "Ġrecent": 4411,
      "Ġsupply": 4412,
      "Ġfrank": 4413,
      "Ġpresident": 4414,
      "Ġmember": 4415,
      "Ġmemory": 4416,
      "Ġcopies": 4417,
      "Ġannoy": 4418,
      "minist": 4419,
      "Ġmistakes": 4420,
      "Ġlegs": 4421,
      "Ġcampaign": 4422,
      "Ġproperly": 4423,
      "Ġtypical": 4424,
      "Ġpropos": 4425,
      "Ġexperienced": 4426,
      "Ġphysical": 4427,
      "ĠWonder": 4428,
      "ĠHelen": 4429,
      "sych": 4430,
      "Ġconversation": 4431,
      "Ġscheduled": 4432,
      "ĠDefinitely": 4433,
      "give": 4434,
      "mely": 4435,
      "ĠÂ": 4436,
      "Ġtab": 4437,
      "Ġbunch": 4438,
      "Ġfishing": 4439,
      "Ġpork": 4440,
      "Ġpills": 4441,
      "Ġgro": 4442,
      "ĠWestern": 4443,
      "arian": 4444,
      "Ġabove": 4445,
      "amp": 4446,
      "Ġsuite": 4447,
      "eaking": 4448,
      "Ġbutter": 4449,
      "Ġwashed": 4450,
      "indy": 4451,
      "ils": 4452,
      "Ġproced": 4453,
      "Ġcomplim": 4454,
      "ĠRose": 4455,
      "ĠJones": 4456,
      "Ġproud": 4457,
      "Ġcourt": 4458,
      "Ġ36": 4459,
      "Ġbadly": 4460,
      "Ġglob": 4461,
      "Ġseller": 4462,
      "ĠAnge": 4463,
      "ĠZhang": 4464,
      "Ġregularly": 4465,
      "Ġeffects": 4466,
      "Ġneckl": 4467,
      "Ġoriginal": 4468,
      "Ġvolunte": 4469,
      "Ġpotatoes": 4470,
      "Ġcinema": 4471,
      "Your": 4472,
      "bits": 4473,
      "iver": 4474,
      "inum": 4475,
      "Ġwire": 4476,
      "Ġtheater": 4477,
      "erk": 4478,
      "itam": 4479,
      "ĠHas": 4480,
      "ĠSch": 4481,
      "Ġanal": 4482,
      "ĠCard": 4483,
      "ĠLo": 4484,
      "ĠPI": 4485,
      "Ġfeed": 4486,
      "Ġcloth": 4487,
      "arent": 4488,
      "Ġvill": 4489,
      "Ġ26": 4490,
      "Ġreserved": 4491,
      "Ġloved": 4492,
      "Ġenjoying": 4493,
      "Ġfavour": 4494,
      "Ġtyping": 4495,
      "Ġmeth": 4496,
      "Ġindivid": 4497,
      "Ġdressed": 4498,
      "Ġbottles": 4499,
      "Ġpersonality": 4500,
      "ĠLiu": 4501,
      "Ġcompetition": 4502,
      "Ġfairly": 4503,
      "Ġsightseeing": 4504,
      "Ġselection": 4505,
      "Ġdivorce": 4506,
      "Ġstamps": 4507,
      "Ġbrief": 4508,
      "ĠWashington": 4509,
      "ĠCalifornia": 4510,
      "23": 4511,
      "mother": 4512,
      "nces": 4513,
      "pen": 4514,
      "rit": 4515,
      "rict": 4516,
      "size": 4517,
      "Ġtip": 4518,
      "Ġwild": 4519,
      "Ġcu": 4520,
      "Ġflex": 4521,
      "Ġpunch": 4522,
      "ĠWalk": 4523,
      "Ġlip": 4524,
      "entist": 4525,
      "Ġshy": 4526,
      "Ġworst": 4527,
      "Ġcommer": 4528,
      "Ġplat": 4529,
      "Ġworkers": 4530,
      "Ġspir": 4531,
      "Ġspell": 4532,
      "ardon": 4533,
      "Ġquot": 4534,
      "Ġdisag": 4535,
      "Ġshowed": 4536,
      "ĠKore": 4537,
      "weight": 4538,
      "Ġdeserve": 4539,
      "Ġends": 4540,
      "Ġextension": 4541,
      "Ġpolit": 4542,
      "Ġcaf": 4543,
      "Ġentire": 4544,
      "ĠAnother": 4545,
      "Ġholding": 4546,
      "ĠShow": 4547,
      "Ġinvestment": 4548,
      "Ġvalu": 4549,
      "Ġelectron": 4550,
      "ĠTrue": 4551,
      "Ġzoo": 4552,
      "Ġpatient": 4553,
      "Ġfamilies": 4554,
      "bedroom": 4555,
      "going": 4556,
      "ĠDaniel": 4557,
      "Ġcabin": 4558,
      "Ġcooperation": 4559,
      "Ġadvantage": 4560,
      "Ġsuddenly": 4561,
      "Ġextremely": 4562,
      "ĠAugust": 4563,
      "ĠWonderful": 4564,
      "ky": 4565,
      "Ġtu": 4566,
      "Ġtit": 4567,
      "Ġtar": 4568,
      "Ġtone": 4569,
      "Ġsite": 4570,
      "Ġsli": 4571,
      "Ġcre": 4572,
      "Ġlend": 4573,
      "Ġnorth": 4574,
      "arm": 4575,
      "ĠTaylor": 4576,
      "ids": 4577,
      "Ġcancell": 4578,
      "ĠMc": 4579,
      "ĠChan": 4580,
      "Ġoutd": 4581,
      "iece": 4582,
      "ĠWhile": 4583,
      "ĠThomas": 4584,
      "ĠVI": 4585,
      "Ġapples": 4586,
      "Ġ23": 4587,
      "Ġdownload": 4588,
      "Ġtomat": 4589,
      "Ġpale": 4590,
      "Ġimpossible": 4591,
      "Ġsinger": 4592,
      "Ġwarming": 4593,
      "Ġarticles": 4594,
      "Ġcats": 4595,
      "Ġshirts": 4596,
      "porate": 4597,
      "Ġglasses": 4598,
      "ambling": 4599,
      "Ġmeasure": 4600,
      "Ġchallenging": 4601,
      "Ġpurpose": 4602,
      "Ġincredible": 4603,
      "ĠPIN": 4604,
      "ai": 4605,
      "hlet": 4606,
      "nal": 4607,
      "ta": 4608,
      "Ġmp": 4609,
      "Ġbite": 4610,
      "lla": 4611,
      "Ġfle": 4612,
      "Ġdom": 4613,
      "Ġgall": 4614,
      "ĠMaster": 4615,
      "Ġsole": 4616,
      "Ġathlet": 4617,
      "urry": 4618,
      "ĠLinda": 4619,
      "ulty": 4620,
      "Ġrisk": 4621,
      "Ġchips": 4622,
      "Ġbranch": 4623,
      "Ġstudies": 4624,
      "Ġempt": 4625,
      "Ġbrings": 4626,
      "Ġterm": 4627,
      "Ġ45": 4628,
      "Ġcru": 4629,
      "Ġconsideration": 4630,
      "Ġwindows": 4631,
      "Ġeffort": 4632,
      "Ġfollowing": 4633,
      "Ġwalls": 4634,
      "eteria": 4635,
      "Ġdegrees": 4636,
      "Ġobvious": 4637,
      "Ġturning": 4638,
      "Ġvehicle": 4639,
      "Ġsenior": 4640,
      "Ġsurvive": 4641,
      "Ġnecklace": 4642,
      "Ġcafeteria": 4643,
      "Ġtag": 4644,
      "Ġtheat": 4645,
      "Ġcough": 4646,
      "Ġbicy": 4647,
      "Ġdie": 4648,
      "ĠWind": 4649,
      "arah": 4650,
      "Ġinqu": 4651,
      "Ġlif": 4652,
      "ĠSqu": 4653,
      "roll": 4654,
      "Ġthinks": 4655,
      "Ġknock": 4656,
      "ĠDoctor": 4657,
      "agers": 4658,
      "Ġoverd": 4659,
      "Ġadjust": 4660,
      "ichuan": 4661,
      "Ġregard": 4662,
      "Ġregret": 4663,
      "Ġlazy": 4664,
      "Ġslight": 4665,
      "Ġwarning": 4666,
      "Ġsleeping": 4667,
      "Ġpractical": 4668,
      "Ġgenerally": 4669,
      "Ġmentioned": 4670,
      "Ġstatement": 4671,
      "Ġgrab": 4672,
      "ĠWorking": 4673,
      "Ġhobby": 4674,
      "Ġdrugs": 4675,
      "ĠPCC": 4676,
      "Ġdisappointed": 4677,
      "Ġsouvenirs": 4678,
      "Ġmaximum": 4679,
      "Ġrepresent": 4680,
      "Ġmethod": 4681,
      "iable": 4682,
      "teen": 4683,
      "ining": 4684,
      "Ġfits": 4685,
      "Ġdating": 4686,
      "esome": 4687,
      "Ġloss": 4688,
      "ĠWest": 4689,
      "Ġrepe": 4690,
      "ĠAM": 4691,
      "Ġgolf": 4692,
      "Ġjunk": 4693,
      "ĠBo": 4694,
      "ĠBu": 4695,
      "Ġshipping": 4696,
      "Ġanytime": 4697,
      "Ġprob": 4698,
      "Ġgoodbye": 4699,
      "ĠLily": 4700,
      "Ġcompens": 4701,
      "ĠFair": 4702,
      "Ġvirus": 4703,
      "Ġcheer": 4704,
      "Ġchop": 4705,
      "Ġhadn": 4706,
      "Ġpref": 4707,
      "Ġunivers": 4708,
      "Ġaccom": 4709,
      "Ġinsist": 4710,
      "ucky": 4711,
      "Ġapart": 4712,
      "Ġseries": 4713,
      "Ġaddition": 4714,
      "Ġoffering": 4715,
      "ĠAlmost": 4716,
      "ommod": 4717,
      "Ġjoking": 4718,
      "ĠAfric": 4719,
      "Ġhundreds": 4720,
      "Ġboys": 4721,
      "ĠSomething": 4722,
      "Ġtransferred": 4723,
      "Who": 4724,
      "Ġtechnology": 4725,
      "Ġcharged": 4726,
      "Ġcockt": 4727,
      "ĠRobert": 4728,
      "Ġsixty": 4729,
      "Ġcritic": 4730,
      "Ġdeduct": 4731,
      "ĠLucy": 4732,
      "Ġsplit": 4733,
      "Ġunusual": 4734,
      "Ġuniversities": 4735,
      "Any": 4736,
      "In": 4737,
      "Then": 4738,
      "cing": 4739,
      "ris": 4740,
      "rack": 4741,
      "wor": 4742,
      "Ġpu": 4743,
      "Ġpock": 4744,
      "Ġgrown": 4745,
      "ĠToo": 4746,
      "lect": 4747,
      "Ġreduction": 4748,
      "ĠSichuan": 4749,
      "entle": 4750,
      "ĠOver": 4751,
      "Ġlikely": 4752,
      "ĠBen": 4753,
      "Ġsore": 4754,
      "Ġsoda": 4755,
      "Ġrates": 4756,
      "istry": 4757,
      "resident": 4758,
      "Ġintend": 4759,
      "Ġroommate": 4760,
      "ĠSurely": 4761,
      "Ġshad": 4762,
      "Ġshame": 4763,
      "Ġskill": 4764,
      "standing": 4765,
      "Ġsettle": 4766,
      "Ġowners": 4767,
      "Ġtransaction": 4768,
      "Ġcafe": 4769,
      "Ġpacked": 4770,
      "Ġeleven": 4771,
      "Ġlocation": 4772,
      "Ġteaching": 4773,
      "Ġconsidered": 4774,
      "Ġsunny": 4775,
      "Ġsupervis": 4776,
      "Ġideal": 4777,
      "Ġproperty": 4778,
      "ĠSuper": 4779,
      "Ġriver": 4780,
      "Ġlabor": 4781,
      "Ġroute": 4782,
      "Ġbowl": 4783,
      "Ġcandidate": 4784,
      "Ġladies": 4785,
      "Ġdepressed": 4786,
      "BC": 4787,
      "John": 4788,
      "bel": 4789,
      "free": 4790,
      "father": 4791,
      "nels": 4792,
      "uch": 4793,
      "vard": 4794,
      "Ġmir": 4795,
      "eral": 4796,
      "Ġbrow": 4797,
      "Ġfu": 4798,
      "Ġpil": 4799,
      "Ġlake": 4800,
      "Ġloose": 4801,
      "Ġnames": 4802,
      "ats": 4803,
      "ĠâĢĺ": 4804,
      "Ġweb": 4805,
      "idden": 4806,
      "ĠAvenue": 4807,
      "ĠSally": 4808,
      "ĠSarah": 4809,
      "ĠCindy": 4810,
      "Ġjacket": 4811,
      "ĠBir": 4812,
      "Ġaltogether": 4813,
      "Ġplants": 4814,
      "Ġworksh": 4815,
      "Ġrude": 4816,
      "Ġflower": 4817,
      "Ġblame": 4818,
      "Ġscr": 4819,
      "Ġsuppli": 4820,
      "ogn": 4821,
      "Ġsending": 4822,
      "Ġcolour": 4823,
      "iao": 4824,
      "Ġhonor": 4825,
      "Ġcompleted": 4826,
      "Ġparticularly": 4827,
      "Ġhorror": 4828,
      "Ġbedrooms": 4829,
      "Ġobject": 4830,
      "Ġweakness": 4831,
      "Ġspoken": 4832,
      "ĠBarbie": 4833,
      "Ġglobal": 4834,
      "Ġtitle": 4835,
      "Ġempty": 4836,
      "sit": 4837,
      "hest": 4838,
      "Ġwa": 4839,
      "Ġdust": 4840,
      "arr": 4841,
      "icag": 4842,
      "Ġgoals": 4843,
      "ĠCont": 4844,
      "Ġprogress": 4845,
      "Ġplain": 4846,
      "Ġplays": 4847,
      "Ġspr": 4848,
      "Ġrise": 4849,
      "ĠFore": 4850,
      "umes": 4851,
      "Ġlog": 4852,
      "oles": 4853,
      "Ġsheet": 4854,
      "Ġchances": 4855,
      "izing": 4856,
      "oston": 4857,
      "Ġwaiter": 4858,
      "like": 4859,
      "Ġ75": 4860,
      "Ġbroad": 4861,
      "Ġpaperwork": 4862,
      "Ġtopic": 4863,
      "ĠExp": 4864,
      "Ġforgotten": 4865,
      "Ġparticip": 4866,
      "Ġdiscussion": 4867,
      "overed": 4868,
      "Ġhandsome": 4869,
      "achelor": 4870,
      "Ġoccup": 4871,
      "Ġkilomet": 4872,
      "Ġdraft": 4873,
      "offer": 4874,
      "Ġmembership": 4875,
      "Ġhobbies": 4876,
      "ĠCenter": 4877,
      "Ġskiing": 4878,
      "Ġsample": 4879,
      "Ġtornado": 4880,
      "icago": 4881,
      "Come": 4882,
      "hile": 4883,
      "made": 4884,
      "tor": 4885,
      "Ġiron": 4886,
      "Ġbored": 4887,
      "Ġfol": 4888,
      "Ġpin": 4889,
      "Ġpink": 4890,
      "Ġoption": 4891,
      "Ġinj": 4892,
      "Ġitself": 4893,
      "Ġforgive": 4894,
      "ĠSc": 4895,
      "ĠSam": 4896,
      "ĠMum": 4897,
      "cember": 4898,
      "Ġrights": 4899,
      "Ġrum": 4900,
      "Ġrace": 4901,
      "ĠForm": 4902,
      "ĠFestival": 4903,
      "Ġclerk": 4904,
      "Ġotherwise": 4905,
      "Ġminor": 4906,
      "Ġwrote": 4907,
      "Ġwaitress": 4908,
      "Ġdrunk": 4909,
      "Ġschol": 4910,
      "Ġbelong": 4911,
      "Ġpersonally": 4912,
      "Ġvisited": 4913,
      "Ġ70": 4914,
      "ifications": 4915,
      "Ġcaused": 4916,
      "Ġsweat": 4917,
      "Ġoppos": 4918,
      "Ġarrang": 4919,
      "Ġinvestig": 4920,
      "Ġdamaged": 4921,
      "---": 4922,
      "ĠDecember": 4923,
      "Ġanti": 4924,
      "Ġfunds": 4925,
      "Ġscenery": 4926,
      "ĠHarvard": 4927,
      "Ġfocus": 4928,
      "Ġappetizer": 4929,
      "Ġpiano": 4930,
      "Ġcousin": 4931,
      "ĠGlad": 4932,
      "11": 4933,
      "ging": 4934,
      "oking": 4935,
      "ties": 4936,
      "vant": 4937,
      "vable": 4938,
      "zing": 4939,
      "Ġir": 4940,
      "Ġtv": 4941,
      "Ġhabits": 4942,
      "utation": 4943,
      "Ġhired": 4944,
      "Ġheight": 4945,
      "ĠSix": 4946,
      "Ġstage": 4947,
      "Ġstret": 4948,
      "ĠMed": 4949,
      "ĠCol": 4950,
      "ilson": 4951,
      "quet": 4952,
      "Ġcos": 4953,
      "ĠRom": 4954,
      "ĠChicago": 4955,
      "Ġexpand": 4956,
      "Ġdepos": 4957,
      "Ġcontain": 4958,
      "Ġbelt": 4959,
      "Ġrelatives": 4960,
      "Ġdescription": 4961,
      "Ġtrainer": 4962,
      "Ġexpert": 4963,
      "ivil": 4964,
      "Ġbreaks": 4965,
      "ĠFranc": 4966,
      "Ġseconds": 4967,
      "Ġraining": 4968,
      "ĠHaven": 4969,
      "Ġprovides": 4970,
      "Ġneighbors": 4971,
      "ĠProfessor": 4972,
      "Ġbenefit": 4973,
      "Ġadvertisements": 4974,
      "Ġofficer": 4975,
      "Ġbattery": 4976,
      "Ġhousing": 4977,
      "Ġromantic": 4978,
      "Ġmanufacture": 4979,
      "ĠBelieve": 4980,
      "ĠGenerally": 4981,
      "78": 4982,
      "no": 4983,
      "pack": 4984,
      "yer": 4985,
      "Ġ&": 4986,
      "hell": 4987,
      "ham": 4988,
      "Ġcy": 4989,
      "Ġbun": 4990,
      "Ġlines": 4991,
      "Ġnature": 4992,
      "aries": 4993,
      "Ġliqu": 4994,
      "Ġumb": 4995,
      "ĠBra": 4996,
      "Ġate": 4997,
      "oph": 4998,
      "Ġprodu": 4999,
      "Ġamb": 5000,
      "Ġspots": 5001,
      "ĠEast": 5002,
      "Ġloans": 5003,
      "Ġkeen": 5004,
      "Ġchannels": 5005,
      "angzhou": 5006,
      "Ġscale": 5007,
      "Ġgrade": 5008,
      "Ġrail": 5009,
      "Ġlisted": 5010,
      "Ġairmail": 5011,
      "Ġsigns": 5012,
      "Ġshops": 5013,
      "Ġconsult": 5014,
      "Ġswitch": 5015,
      "Ġrains": 5016,
      "Ġgrades": 5017,
      "Maybe": 5018,
      "Ġcorrectly": 5019,
      "Ġsilver": 5020,
      "Ġhiking": 5021,
      "Ġcalm": 5022,
      "Ġpaintings": 5023,
      "ĠPersonal": 5024,
      "ĠService": 5025,
      "ĠSpring": 5026,
      "Ġproposal": 5027,
      "Ġlipst": 5028,
      "Ġumbre": 5029,
      "ges": 5030,
      "gal": 5031,
      "ler": 5032,
      "look": 5033,
      "oom": 5034,
      "uum": 5035,
      "iny": 5036,
      "Ġmult": 5037,
      "onven": 5038,
      "Ġcast": 5039,
      "Ġfitting": 5040,
      "Ġfancy": 5041,
      "Ġdare": 5042,
      "Ġpays": 5043,
      "Ġgentle": 5044,
      "Ġnons": 5045,
      "ening": 5046,
      "enry": 5047,
      "lend": 5048,
      "Ġweigh": 5049,
      "enth": 5050,
      "ĠMm": 5051,
      "ĠChar": 5052,
      "usted": 5053,
      "ĠDick": 5054,
      "Ġjud": 5055,
      "ĠBoston": 5056,
      "eable": 5057,
      "iles": 5058,
      "Ġprove": 5059,
      "ĠPoor": 5060,
      "ĠPresident": 5061,
      "Ġcoke": 5062,
      "redit": 5063,
      "Ġprevent": 5064,
      "Ġadmit": 5065,
      "arship": 5066,
      "Ġscar": 5067,
      "Ġgrass": 5068,
      "Ġattach": 5069,
      "Ġbelow": 5070,
      "Ġaddict": 5071,
      "Ġapartments": 5072,
      "Ġemployer": 5073,
      "Ġvacuum": 5074,
      "Ġinconven": 5075,
      "Ġconsidering": 5076,
      "Ġneighbour": 5077,
      "Ġromance": 5078,
      "Ġappliances": 5079,
      "Ġdeparture": 5080,
      "Ġentertainment": 5081,
      "Ġtravelling": 5082,
      "Ġperfume": 5083,
      "Ġindividual": 5084,
      "ĠSquare": 5085,
      "down": 5086,
      "word": 5087,
      "yn": 5088,
      "ounce": 5089,
      "Ġcakes": 5090,
      "Ġfond": 5091,
      "Ġdates": 5092,
      "Ġlect": 5093,
      "ena": 5094,
      "keep": 5095,
      "utch": 5096,
      "ĠOut": 5097,
      "Ġneare": 5098,
      "Ġsex": 5099,
      "ĠWeb": 5100,
      "ĠMo": 5101,
      "oods": 5102,
      "Ġjew": 5103,
      "ilton": 5104,
      "igent": 5105,
      "Ġcompar": 5106,
      "ĠJason": 5107,
      "Ġmoist": 5108,
      "aren": 5109,
      "Ġrocks": 5110,
      "Ġadult": 5111,
      "Ġchannel": 5112,
      "Ġteeth": 5113,
      "Ġbecame": 5114,
      "Ġinterests": 5115,
      "Ġharm": 5116,
      "Ġblank": 5117,
      "Ġrecogn": 5118,
      "Ġdisco": 5119,
      "Ġruns": 5120,
      "Ġsigned": 5121,
      "Ġstrate": 5122,
      "Ġqualifications": 5123,
      "Ġcooked": 5124,
      "Ġconfidence": 5125,
      "Ġjogging": 5126,
      "Ġcrack": 5127,
      "Ġdetect": 5128,
      "Ġmemo": 5129,
      "Ġvegetarian": 5130,
      "Ġdesigned": 5131,
      "Ġprojects": 5132,
      "ĠSpeaking": 5133,
      "Ġprofessor": 5134,
      "Ġsteal": 5135,
      "Ġeffective": 5136,
      "cycle": 5137,
      "Ġcommunity": 5138,
      "Ġshoe": 5139,
      "Ġunfortunately": 5140,
      "Ġmotorcycle": 5141,
      "Ġprinci": 5142,
      "Ġdata": 5143,
      "Ġcocktail": 5144,
      "belie": 5145,
      "Ġopposite": 5146,
      "Wow": 5147,
      "chan": 5148,
      "hu": 5149,
      "ik": 5150,
      "pa": 5151,
      "uary": 5152,
      "Ġvers": 5153,
      "hache": 5154,
      "onest": 5155,
      "Ġinse": 5156,
      "ĠHouse": 5157,
      "Ġuh": 5158,
      "Ġstere": 5159,
      "ĠCall": 5160,
      "Ġsoci": 5161,
      "Ġshift": 5162,
      "Ġexec": 5163,
      "Ġaltern": 5164,
      "ĠLove": 5165,
      "Ġdebit": 5166,
      "elly": 5167,
      "Ġupstairs": 5168,
      "Ġfeatures": 5169,
      "Ġchef": 5170,
      "actory": 5171,
      "Ġgreatest": 5172,
      "Ġproof": 5173,
      "Ġ28": 5174,
      "Ġgrou": 5175,
      "Ġhousehold": 5176,
      "Ġattack": 5177,
      "Ġfrust": 5178,
      "Ġregulations": 5179,
      "Ġcolumn": 5180,
      "Ġevenings": 5181,
      "Ġpicked": 5182,
      "Ġacceptable": 5183,
      "Ġbarbe": 5184,
      "Ġphoto": 5185,
      "shine": 5186,
      "Ġpromoted": 5187,
      "Ġgrandmother": 5188,
      "Ġsubjects": 5189,
      "Ġroutine": 5190,
      "ĠJoe": 5191,
      "Ġdestro": 5192,
      "Ġseparate": 5193,
      "Ġstrawber": 5194,
      "Ġcompliment": 5195,
      "Ġbicycle": 5196,
      "Ġprobation": 5197,
      "Ġlipstick": 5198,
      "IF": 5199,
      "Mary": 5200,
      "St": 5201,
      "bage": 5202,
      "gant": 5203,
      "ipped": 5204,
      "kn": 5205,
      "pir": 5206,
      "yond": 5207,
      "Ġx": 5208,
      "Ġign": 5209,
      "Ġcongratulations": 5210,
      "Ġbum": 5211,
      "Ġfired": 5212,
      "Ġpets": 5213,
      "Ġpsych": 5214,
      "Ġgorge": 5215,
      "Ġnin": 5216,
      "Ġnap": 5217,
      "arily": 5218,
      "ĠTer": 5219,
      "Ġreci": 5220,
      "alous": 5221,
      "Ġcancer": 5222,
      "acious": 5223,
      "Ġstars": 5224,
      "Ġseed": 5225,
      "ĠMart": 5226,
      "ĠTheir": 5227,
      "Ġexha": 5228,
      "ĠLos": 5229,
      "ended": 5230,
      "ĠEd": 5231,
      "ĠEs": 5232,
      "Ġtroub": 5233,
      "Ġarms": 5234,
      "Ġinvoice": 5235,
      "Ġevent": 5236,
      "Ġinformed": 5237,
      "Ġpresents": 5238,
      "Ġ800": 5239,
      "Ġmarkets": 5240,
      "Ġvisitors": 5241,
      "Ġreservations": 5242,
      "Ġcustoms": 5243,
      "Ġreturns": 5244,
      "Ġpostc": 5245,
      "Ġteachers": 5246,
      "Ġpubl": 5247,
      "Ġfitness": 5248,
      "Ġautumn": 5249,
      "Ġcollection": 5250,
      "Ġfruits": 5251,
      "Ġnewspapers": 5252,
      "Ġfurnished": 5253,
      "Ġsatisfaction": 5254,
      "Ġtechnical": 5255,
      "Ġdeadline": 5256,
      "ĠCurrent": 5257,
      "Ġcrime": 5258,
      "Ġinflu": 5259,
      "ĠSandals": 5260,
      "Ġflexible": 5261,
      "Ġvaluable": 5262,
      "Ġnearest": 5263,
      "believable": 5264,
      "hour": 5265,
      "Ġtong": 5266,
      "Ġsour": 5267,
      "Ġmile": 5268,
      "Ġcott": 5269,
      "Ġbars": 5270,
      "Ġfestival": 5271,
      "Ġdorm": 5272,
      "Ġpred": 5273,
      "nda": 5274,
      "Ġham": 5275,
      "Ġthick": 5276,
      "icing": 5277,
      "Ġonto": 5278,
      "alt": 5279,
      "alty": 5280,
      "ĠHall": 5281,
      "ĠABC": 5282,
      "ĠSun": 5283,
      "Ġstir": 5284,
      "roaches": 5285,
      "ĠMorning": 5286,
      "ĠMars": 5287,
      "ĠMountain": 5288,
      "ĠDri": 5289,
      "oodles": 5290,
      "Ġshout": 5291,
      "urt": 5292,
      "urger": 5293,
      "ĠPet": 5294,
      "ĠEight": 5295,
      "udy": 5296,
      "Ġcarr": 5297,
      "ode": 5298,
      "Ġcontest": 5299,
      "Ġeaten": 5300,
      "Ġcharming": 5301,
      "Ġbreast": 5302,
      "Ġfourth": 5303,
      "Ġslot": 5304,
      "Ġbeds": 5305,
      "Ġhotels": 5306,
      "Ġmeter": 5307,
      "ĠWhoa": 5308,
      "Ġclothing": 5309,
      "Ġmainly": 5310,
      "Ġmemor": 5311,
      "Ġreputation": 5312,
      "Ġtradition": 5313,
      "Ġmode": 5314,
      "Ġlawyer": 5315,
      "Ġkilled": 5316,
      "Ġgarage": 5317,
      "Ġcloser": 5318,
      "Ġapplied": 5319,
      "Ġevidence": 5320,
      "Ġembarr": 5321,
      "Ġlobby": 5322,
      "ĠVISA": 5323,
      "Ġtongue": 5324,
      "Mom": 5325,
      "ek": 5326,
      "eve": 5327,
      "gon": 5328,
      "Ġyog": 5329,
      "Ġburn": 5330,
      "Ġfra": 5331,
      "Ġdull": 5332,
      "Ġlung": 5333,
      "Ġnic": 5334,
      "ened": 5335,
      "ĠTed": 5336,
      "Ġbeyond": 5337,
      "Ġreward": 5338,
      "uts": 5339,
      "ĠHurry": 5340,
      "Ġstorm": 5341,
      "ĠCP": 5342,
      "ĠBring": 5343,
      "ppers": 5344,
      "ĠFlight": 5345,
      "Ġqueen": 5346,
      "Ġoffered": 5347,
      "Ġgotta": 5348,
      "Ġtrick": 5349,
      "Ġ35": 5350,
      "Ġscary": 5351,
      "Ġshamp": 5352,
      "Ġsetting": 5353,
      "Ġrealtor": 5354,
      "ĠForget": 5355,
      "Ġbird": 5356,
      "Ġwalked": 5357,
      "azz": 5358,
      "ĠEverybody": 5359,
      "Ġprize": 5360,
      "Ġrequired": 5361,
      "Ġhighest": 5362,
      "Ġhistor": 5363,
      "Ġequal": 5364,
      "Ġoperation": 5365,
      "Ġclimbing": 5366,
      "iquet": 5367,
      "Ġstarving": 5368,
      "Ġconcern": 5369,
      "Ġappetite": 5370,
      "ĠMmmm": 5371,
      "Ġcigarette": 5372,
      "ĠCorporation": 5373,
      "Ġskirts": 5374,
      "ĠAngeles": 5375,
      "Ġvillage": 5376,
      "Ġdisagree": 5377,
      "Ġrepeat": 5378,
      "Ġumbrella": 5379,
      "Ġshampoo": 5380,
      "goes": 5381,
      "iency": 5382,
      "mium": 5383,
      "Ġsout": 5384,
      "itan": 5385,
      "Ġpig": 5386,
      "Ġpenc": 5387,
      "Ġpants": 5388,
      "Ġgun": 5389,
      "ĠWin": 5390,
      "Ġinfect": 5391,
      "ĠHenry": 5392,
      "ĠSue": 5393,
      "Ġneither": 5394,
      "adem": 5395,
      "adena": 5396,
      "Ġjun": 5397,
      "Ġalarm": 5398,
      "estic": 5399,
      "Ġcoin": 5400,
      "Ġcoast": 5401,
      "ums": 5402,
      "ĠRuss": 5403,
      "Ġintell": 5404,
      "Ġpepper": 5405,
      "Ġbuff": 5406,
      "Ġ22": 5407,
      "Ġpartner": 5408,
      "Ġmangoes": 5409,
      "eech": 5410,
      "Ġhappening": 5411,
      "Ġbegan": 5412,
      "Ġconfused": 5413,
      "Ġcausing": 5414,
      "Ġcleaned": 5415,
      "Ġexercising": 5416,
      "Ġdifficulties": 5417,
      "Ġlessons": 5418,
      "Ġparcel": 5419,
      "ĠTrust": 5420,
      "Ġlaws": 5421,
      "Ġ250": 5422,
      "Ġfashionable": 5423,
      "Ġengaged": 5424,
      "Ġclubs": 5425,
      "Ġmillions": 5426,
      "Ġnormally": 5427,
      "Ġcalc": 5428,
      "Ġvoted": 5429,
      "ĠOtherwise": 5430,
      "Ġabsent": 5431,
      "Ġceremony": 5432,
      "ministration": 5433,
      "itamins": 5434,
      "Ġpocket": 5435,
      "Ġsupervisor": 5436,
      "ĠExpress": 5437,
      "Ġscholarship": 5438,
      "Ġembarrass": 5439,
      "cue": 5440,
      "gn": 5441,
      "gers": 5442,
      "iest": 5443,
      "ux": 5444,
      "wood": 5445,
      "Ġ00": 5446,
      "Ġwow": 5447,
      "Ġmic": 5448,
      "Ġmort": 5449,
      "Ġfright": 5450,
      "Ġfab": 5451,
      "Ġpipe": 5452,
      "Ġlack": 5453,
      "Ġlem": 5454,
      "Ġow": 5455,
      "Ġnurse": 5456,
      "ĠTy": 5457,
      "Ġbeans": 5458,
      "Ġhook": 5459,
      "ashed": 5460,
      "ĠSame": 5461,
      "ĠSever": 5462,
      "rop": 5463,
      "ĠCredit": 5464,
      "Ġbutt": 5465,
      "ores": 5466,
      "iled": 5467,
      "ĠLong": 5468,
      "Ġupd": 5469,
      "Ġvict": 5470,
      "ccer": 5471,
      "Ġbride": 5472,
      "Ġdownstairs": 5473,
      "ĠReg": 5474,
      "Ġclever": 5475,
      "Ġlaid": 5476,
      "Ġtransl": 5477,
      "Ġcorporation": 5478,
      "Ġslim": 5479,
      "Ġqualities": 5480,
      "Ġstands": 5481,
      "Ġelegant": 5482,
      "Ġforever": 5483,
      "Ġexercises": 5484,
      "Ġrepay": 5485,
      "Ġreply": 5486,
      "olution": 5487,
      "Ġforeigners": 5488,
      "Ġsunshine": 5489,
      "Ġsuperior": 5490,
      "ĠZina": 5491,
      "coln": 5492,
      "ĠUSD": 5493,
      "Ġpotential": 5494,
      "Ġleaders": 5495,
      "Ġfifth": 5496,
      "Ġille": 5497,
      "Ġjealous": 5498,
      "scap": 5499,
      "ĠManager": 5500,
      "Ġelectricity": 5501,
      "Ġpreparing": 5502,
      "ĠEnjoy": 5503,
      "Ġsharp": 5504,
      "Ġindependent": 5505,
      "Ġcuis": 5506,
      "Ġgorgeous": 5507,
      "ĠSeveral": 5508,
      "77": 5509,
      "lin": 5510,
      "oot": 5511,
      "pre": 5512,
      "Ġought": 5513,
      "Ġtim": 5514,
      "Ġtack": 5515,
      "hem": 5516,
      "Ġsizes": 5517,
      "Ġwool": 5518,
      "Ġfry": 5519,
      "oring": 5520,
      "Ġdiam": 5521,
      "Ġpers": 5522,
      "Ġpages": 5523,
      "Ġlone": 5524,
      "Ġleng": 5525,
      "Ġnone": 5526,
      "Ġnamed": 5527,
      "Ġnoodles": 5528,
      "enger": 5529,
      "Ġinvent": 5530,
      "atically": 5531,
      "ĠTen": 5532,
      "eding": 5533,
      "ĠYang": 5534,
      "ĠYup": 5535,
      "Ġreached": 5536,
      "Ġweird": 5537,
      "Ġhero": 5538,
      "illed": 5539,
      "Ġstew": 5540,
      "ĠOpen": 5541,
      "Ġneg": 5542,
      "ĠMal": 5543,
      "ĠCons": 5544,
      "anta": 5545,
      "Ġsoap": 5546,
      "Ġshri": 5547,
      "Ġcomed": 5548,
      "ĠLaw": 5549,
      "Ġoutstanding": 5550,
      "ĠRome": 5551,
      "Ġoverweight": 5552,
      "Ġtells": 5553,
      "Ġimm": 5554,
      "ĠInst": 5555,
      "Ġinterrupt": 5556,
      "cling": 5557,
      "Ġdecent": 5558,
      "Ġsooner": 5559,
      "Ġpersonnel": 5560,
      "Ġcoup": 5561,
      "Ġ400": 5562,
      "Ġtrim": 5563,
      "Ġspeaks": 5564,
      "leased": 5565,
      "Ġfoundation": 5566,
      "Ġrecommendation": 5567,
      "Ġelection": 5568,
      "Ġbroch": 5569,
      "Ġdeter": 5570,
      "atively": 5571,
      "Ġtrading": 5572,
      "Ġgrowth": 5573,
      "Ġeducational": 5574,
      "Ġorganic": 5575,
      "Ġzero": 5576,
      "Ġfacial": 5577,
      "Ġofficial": 5578,
      "Ġbrain": 5579,
      "ĠEuropean": 5580,
      "Ġnegotiate": 5581,
      "Ġmixed": 5582,
      "Ġrobber": 5583,
      "Ġlaughing": 5584,
      "Ġannoying": 5585,
      "Ġtablets": 5586,
      "ĠLoan": 5587,
      "Ġtarget": 5588,
      "Ġtomato": 5589,
      "Ġkilometers": 5590,
      "Ġinsect": 5591,
      "Ġgroups": 5592,
      "26": 5593,
      "By": 5594,
      "ao": 5595,
      "kins": 5596,
      "nam": 5597,
      "zer": 5598,
      "ino": 5599,
      "ĠIm": 5600,
      "Ġwest": 5601,
      "Ġwoke": 5602,
      "Ġduck": 5603,
      "Ġdirty": 5604,
      "Ġdentist": 5605,
      "Ġpun": 5606,
      "ĠWork": 5607,
      "ĠWilson": 5608,
      "etch": 5609,
      "Ġrefer": 5610,
      "Ġmechan": 5611,
      "asy": 5612,
      "ased": 5613,
      "ĠAlex": 5614,
      "Ġcandy": 5615,
      "Ġstairs": 5616,
      "ĠCertificate": 5617,
      "ĠDave": 5618,
      "Ġsoccer": 5619,
      "ĠNational": 5620,
      "Ġsumm": 5621,
      "Ġalum": 5622,
      "ili": 5623,
      "ushed": 5624,
      "Ġgoodness": 5625,
      "Ġdeath": 5626,
      "ulate": 5627,
      "Ġoutf": 5628,
      "Ġworker": 5629,
      "Ġupon": 5630,
      "Ġshoulder": 5631,
      "ĠRick": 5632,
      "Ġrole": 5633,
      "ĠThough": 5634,
      "Ġchin": 5635,
      "soci": 5636,
      "Ġ27": 5637,
      "Ġimage": 5638,
      "Ġresources": 5639,
      "Ġaccommod": 5640,
      "Ġblond": 5641,
      "cles": 5642,
      "clus": 5643,
      "Ġpassion": 5644,
      "ancing": 5645,
      "ĠWilliam": 5646,
      "Ġtrips": 5647,
      "ĠAlthough": 5648,
      "Ġcris": 5649,
      "ĠAnna": 5650,
      "Ġpurse": 5651,
      "Ġefforts": 5652,
      "Ġawesome": 5653,
      "Ġthousands": 5654,
      "Ġmodels": 5655,
      "Ġleading": 5656,
      "Ġcompetitive": 5657,
      "Ġlandscap": 5658,
      "Ġpattern": 5659,
      "Ġsolid": 5660,
      "Ġ199": 5661,
      "Ġjournal": 5662,
      "ĠIndian": 5663,
      "ĠLincoln": 5664,
      "ĠCentral": 5665,
      "Ġprinter": 5666,
      "Ġpossibility": 5667,
      "Ġvolunteer": 5668,
      "ĠAfrica": 5669,
      "Ġwaist": 5670,
      "Ġmoisturi": 5671,
      "21": 5672,
      "500": 5673,
      "LS": 5674,
      "aven": 5675,
      "bag": 5676,
      "iang": 5677,
      "ked": 5678,
      "ãĢ": 5679,
      "Ġ000": 5680,
      "ĠãĢ": 5681,
      "Ġtables": 5682,
      "Ġmut": 5683,
      "Ġcivil": 5684,
      "Ġfiction": 5685,
      "Ġfinger": 5686,
      "Ġgrew": 5687,
      "Ġnation": 5688,
      "ĠWant": 5689,
      "Ġrear": 5690,
      "Ġhom": 5691,
      "rier": 5692,
      "Ġund": 5693,
      "Ġstove": 5694,
      "iry": 5695,
      "Ġgoss": 5696,
      "amn": 5697,
      "Ġallerg": 5698,
      "ushing": 5699,
      "Ġdev": 5700,
      "Ġspeech": 5701,
      "ĠPal": 5702,
      "igning": 5703,
      "Ġrash": 5704,
      "ĠGee": 5705,
      "ĠRel": 5706,
      "Ġhowever": 5707,
      "Ġtwin": 5708,
      "ishment": 5709,
      "Ġchops": 5710,
      "Ġafterwards": 5711,
      "Ġlasts": 5712,
      "Ġsmile": 5713,
      "Ġrecon": 5714,
      "onda": 5715,
      "ĠKate": 5716,
      "Ġfriendship": 5717,
      "Ġcoun": 5718,
      "Ġrecommended": 5719,
      "Ġforecast": 5720,
      "Ġheading": 5721,
      "Ġhaircut": 5722,
      "ollow": 5723,
      "Ġrequires": 5724,
      "Ġreports": 5725,
      "verted": 5726,
      "Ġcentral": 5727,
      "ĠJanet": 5728,
      "Ġgrowing": 5729,
      "Ġhorse": 5730,
      "Ġcurrently": 5731,
      "Ġoperate": 5732,
      "Ġanimal": 5733,
      "Ġwithdrawal": 5734,
      "ography": 5735,
      "Ġcommunication": 5736,
      "ĠEmory": 5737,
      "Ġcockroaches": 5738,
      "Ġutilities": 5739,
      "Ġtape": 5740,
      "Ġfrequently": 5741,
      "Ġmassage": 5742,
      "Ġwireless": 5743,
      "Ġshadow": 5744,
      "Ġinconvenience": 5745,
      "Ġlonely": 5746,
      "88": 5747,
      "OK": 5748,
      "Track": 5749,
      "Yes": 5750,
      "cceed": 5751,
      "mosp": 5752,
      "rid": 5753,
      "walk": 5754,
      "zil": 5755,
      "inct": 5756,
      "Ġtoys": 5757,
      "orce": 5758,
      "Ġpath": 5759,
      "omen": 5760,
      "ĠWu": 5761,
      "ĠTha": 5762,
      "stood": 5763,
      "iculous": 5764,
      "uted": 5765,
      "ider": 5766,
      "ĠHR": 5767,
      "ĠSit": 5768,
      "Ġstain": 5769,
      "ĠOsc": 5770,
      "Ġsevent": 5771,
      "ĠMill": 5772,
      "ĠMad": 5773,
      "ching": 5774,
      "child": 5775,
      "ĠCIF": 5776,
      "ĠNet": 5777,
      "Ġsucceed": 5778,
      "Ġrub": 5779,
      "Ġrug": 5780,
      "Ġcomplex": 5781,
      "ĠEve": 5782,
      "Ġmoon": 5783,
      "Ġwhenever": 5784,
      "Ġtruck": 5785,
      "Ġpregn": 5786,
      "Ġpermit": 5787,
      "Ġblog": 5788,
      "Ġclassmates": 5789,
      "Ġwaited": 5790,
      "iously": 5791,
      "Ġplanet": 5792,
      "Ġplanned": 5793,
      "Ġsalt": 5794,
      "Ġremove": 5795,
      "Ġsets": 5796,
      "Ġstruct": 5797,
      "Ġreality": 5798,
      "Ġpicking": 5799,
      "Ġpromote": 5800,
      "Does": 5801,
      "Ġsites": 5802,
      "Ġbanks": 5803,
      "Ġsym": 5804,
      "Ġfeelings": 5805,
      "Ġarriving": 5806,
      "Ġawfully": 5807,
      "Ġdrove": 5808,
      "Ġsatisfactory": 5809,
      "Ġagenda": 5810,
      "ĠSuch": 5811,
      "Ġeconomic": 5812,
      "Ġcapital": 5813,
      "Ġenterpr": 5814,
      "check": 5815,
      "Ġcultural": 5816,
      "Ġexperiences": 5817,
      "Ġdivorced": 5818,
      "Ġpossibly": 5819,
      "Ġcereal": 5820,
      "Ġargu": 5821,
      "Ġreligious": 5822,
      "Ġbehav": 5823,
      "ĠCollege": 5824,
      "Ġelectronic": 5825,
      "Ġcompensation": 5826,
      "Ġaccompl": 5827,
      "working": 5828,
      "ĠBrazil": 5829,
      "ĠWebTrack": 5830,
      "Ġaluminum": 5831,
      "mosphere": 5832,
      "ĠWebTracker": 5833,
      "All": 5834,
      "VD": 5835,
      "person": 5836,
      "rd": 5837,
      "rel": 5838,
      "ĠIT": 5839,
      "Ġmur": 5840,
      "Ġmild": 5841,
      "Ġtowards": 5842,
      "eside": 5843,
      "Ġlink": 5844,
      "Ġlamb": 5845,
      "enge": 5846,
      "Ġhamb": 5847,
      "ldom": 5848,
      "Ġhole": 5849,
      "rian": 5850,
      "ĠSw": 5851,
      "aching": 5852,
      "Ġkiss": 5853,
      "ĠMain": 5854,
      "ĠDutch": 5855,
      "ĠDVD": 5856,
      "ĠBaker": 5857,
      "urning": 5858,
      "Ġneedn": 5859,
      "Ġwhom": 5860,
      "ĠNobody": 5861,
      "Ġcompare": 5862,
      "ĠGames": 5863,
      "ĠFred": 5864,
      "ears": 5865,
      "ouses": 5866,
      "ĠThink": 5867,
      "ĠVince": 5868,
      "cca": 5869,
      "Ġflies": 5870,
      "Ġuncom": 5871,
      "Ġmornings": 5872,
      "Ġblind": 5873,
      "Ġblouse": 5874,
      "inton": 5875,
      "ango": 5876,
      "Ġthoughtful": 5877,
      "Ġpassenger": 5878,
      "Ġreliable": 5879,
      "Ġreturning": 5880,
      "Ġflights": 5881,
      "Ġdifficulty": 5882,
      "Ġassured": 5883,
      "olly": 5884,
      "Ġstreets": 5885,
      "ĠHaw": 5886,
      "Ġvegetable": 5887,
      "Ġdirections": 5888,
      "Ġroads": 5889,
      "ĠClub": 5890,
      "Ġsteamed": 5891,
      "Ġbreathe": 5892,
      "Ġwebsites": 5893,
      "Ġkilling": 5894,
      "Ġpulled": 5895,
      "Ġbalcon": 5896,
      "Ġchallenge": 5897,
      "Ġinstructions": 5898,
      "ĠGuangzhou": 5899,
      "Ġadmire": 5900,
      "Ġaudience": 5901,
      "ĠFinally": 5902,
      "Ġjumped": 5903,
      "Ġprocedure": 5904,
      "Ġtheatre": 5905,
      "ĠContin": 5906,
      "Ġexhausted": 5907,
      "Ġlength": 5908,
      "Ġuncomfortable": 5909,
      "Al": 5910,
      "Shall": 5911,
      "bidden": 5912,
      "done": 5913,
      "four": 5914,
      "iant": 5915,
      "jam": 5916,
      "sha": 5917,
      "Ġties": 5918,
      "Ġau": 5919,
      "ounter": 5920,
      "hew": 5921,
      "Ġward": 5922,
      "Ġbachelor": 5923,
      "orage": 5924,
      "Ġpam": 5925,
      "Ġgather": 5926,
      "Ġgross": 5927,
      "Ġgambling": 5928,
      "ĠTian": 5929,
      "lead": 5930,
      "Ġthirst": 5931,
      "Ġeast": 5932,
      "lder": 5933,
      "Ġhomet": 5934,
      "ĠHilton": 5935,
      "ĠSanta": 5936,
      "Ġstood": 5937,
      "Ġstorage": 5938,
      "ĠMen": 5939,
      "ĠMarch": 5940,
      "Ġatmosphere": 5941,
      "cture": 5942,
      "Ġplates": 5943,
      "Ġtools": 5944,
      "ession": 5945,
      "ĠGate": 5946,
      "Ġque": 5947,
      "ĠRed": 5948,
      "ĠRest": 5949,
      "ĠAndy": 5950,
      "Ġovernight": 5951,
      "Ġpron": 5952,
      "Ġmustn": 5953,
      "Ġmanaged": 5954,
      "Ġfewer": 5955,
      "Ġfinance": 5956,
      "gged": 5957,
      "Ġhandling": 5958,
      "tenance": 5959,
      "Ġbooth": 5960,
      "Ġtalks": 5961,
      "Ġworrying": 5962,
      "Ġfarm": 5963,
      "ĠToky": 5964,
      "Ġadvanced": 5965,
      "Ġqualify": 5966,
      "Ġcalend": 5967,
      "Ġshortly": 5968,
      "Ġpackages": 5969,
      "Ġrental": 5970,
      "Ġenvy": 5971,
      "Ġbenefic": 5972,
      "Ġarrangements": 5973,
      "engers": 5974,
      "Ġbreathing": 5975,
      "Ġscient": 5976,
      "Ġridiculous": 5977,
      "Ġearthqu": 5978,
      "Ġbasement": 5979,
      "Ġadvantages": 5980,
      "ĠHopefully": 5981,
      "Ġfortune": 5982,
      "ĠApple": 5983,
      "Ġstrengths": 5984,
      "ĠMexico": 5985,
      "Ġshooting": 5986,
      "Ġfavourite": 5987,
      "ĠForeign": 5988,
      "Ġarranged": 5989,
      "Ġjudge": 5990,
      "Ġbarbecue": 5991,
      "ĠEspecially": 5992,
      "Ġillegal": 5993,
      "Ġhometown": 5994,
      "ĠTokyo": 5995,
      "Ok": 5996,
      "Tom": 5997,
      "can": 5998,
      "hh": 5999,
      "mission": 6000,
      "sed": 6001,
      "uate": 6002,
      "Ġsink": 6003,
      "rev": 6004,
      "Ġwise": 6005,
      "Ġbeside": 6006,
      "Ġfro": 6007,
      "orate": 6008,
      "Ġgay": 6009,
      "Ġgap": 6010,
      "Ġoce": 6011,
      "attle": 6012,
      "ĠTony": 6013,
      "Ġthrill": 6014,
      "icies": 6015,
      "Ġbend": 6016,
      "Ġheaven": 6017,
      "ĠAut": 6018,
      "ĠSim": 6019,
      "ĠSons": 6020,
      "Ġstates": 6021,
      "Ġjet": 6022,
      "rap": 6023,
      "Ġanybody": 6024,
      "erences": 6025,
      "ĠPLS": 6026,
      "Ġours": 6027,
      "ĠFl": 6028,
      "ĠRock": 6029,
      "Ġrose": 6030,
      "ousers": 6031,
      "Ġtrousers": 6032,
      "Ġens": 6033,
      "Ġleaking": 6034,
      "Ġunbelievable": 6035,
      "ensive": 6036,
      "ĠStar": 6037,
      "Ġraised": 6038,
      "Ġhearing": 6039,
      "Ġmatt": 6040,
      "rooms": 6041,
      "Ġpolicies": 6042,
      "Ġfiling": 6043,
      "athy": 6044,
      "Ġwinds": 6045,
      "Ġinternal": 6046,
      "Ġdepartments": 6047,
      "Ġtasty": 6048,
      "workers": 6049,
      "Ġeditor": 6050,
      "Ġconcent": 6051,
      "Ġconsiderate": 6052,
      "Ġallowance": 6053,
      "Ġattended": 6054,
      "Ġdepending": 6055,
      "Ġjoining": 6056,
      "Ġfallen": 6057,
      "Ġdesigns": 6058,
      "Ġdropped": 6059,
      "ĠNeither": 6060,
      "Ġexception": 6061,
      "Ġstressful": 6062,
      "iques": 6063,
      "Ġhumor": 6064,
      "Ġbothering": 6065,
      "Ġrolls": 6066,
      "Ġcreative": 6067,
      "Ġautomatic": 6068,
      "Ġmarked": 6069,
      "XXXX": 6070,
      "ĠHuh": 6071,
      "ĠBritain": 6072,
      "Ġrepresentative": 6073,
      "ĠBirth": 6074,
      "Ġaddicted": 6075,
      "Ġdestroy": 6076,
      "Ġpostcards": 6077,
      "Ġjunior": 6078,
      "Ġgossip": 6079,
      "86": 6080,
      "Just": 6081,
      "boy": 6082,
      "cond": 6083,
      "rating": 6084,
      "ship": 6085,
      "while": 6086,
      "ĠInt": 6087,
      "itar": 6088,
      "Ġdip": 6089,
      "iser": 6090,
      "Ġoven": 6091,
      "Ġnor": 6092,
      "Ġhill": 6093,
      "Ġhey": 6094,
      "Ġheels": 6095,
      "ĠSha": 6096,
      "ĠSan": 6097,
      "ĠBoy": 6098,
      "Ġsof": 6099,
      "Ġsuspect": 6100,
      "Ġalthough": 6101,
      "usi": 6102,
      "ĠLisa": 6103,
      "ĠDoll": 6104,
      "Ġcovers": 6105,
      "Ġracket": 6106,
      "Ġconduct": 6107,
      "Ġconclud": 6108,
      "ĠFollow": 6109,
      "Ġclick": 6110,
      "Ġcloud": 6111,
      "obile": 6112,
      "Ġbug": 6113,
      "Ġchose": 6114,
      "Ġchina": 6115,
      "itty": 6116,
      "Ġletting": 6117,
      "Ġbranc": 6118,
      "Ġbridge": 6119,
      "izzy": 6120,
      "Ġgram": 6121,
      "Ġpassengers": 6122,
      "Ġdrives": 6123,
      "Ġmarvel": 6124,
      "Ġspeakers": 6125,
      "Ġmush": 6126,
      "Ġcountryside": 6127,
      "Ġfilet": 6128,
      "ĠAnne": 6129,
      "Ġedge": 6130,
      "ĠHaha": 6131,
      "Ġattending": 6132,
      "Ġannoun": 6133,
      "Ġhonestly": 6134,
      "Ġdelight": 6135,
      "Ġcollecting": 6136,
      "Ġdeveloped": 6137,
      "Ġpairs": 6138,
      "Ġcarrying": 6139,
      "coming": 6140,
      "Ġburning": 6141,
      "Ġgarlic": 6142,
      "Ġsteaks": 6143,
      "Ġconfirmation": 6144,
      "Ġpropose": 6145,
      "Ġengineer": 6146,
      "Ġtender": 6147,
      "Ġcommunicate": 6148,
      "Ġtextbook": 6149,
      "Ġsamples": 6150,
      "Ġvoting": 6151,
      "Ġdetailed": 6152,
      "Ġsurface": 6153,
      "Ġencourage": 6154,
      "Ġmasc": 6155,
      "Ġdumpl": 6156,
      "ĠSingle": 6157,
      "ĠBasically": 6158,
      "Ġpolitical": 6159,
      "Ġtuition": 6160,
      "Ġdomestic": 6161,
      "Ġmirror": 6162,
      "Ġdetective": 6163,
      "ĠDrive": 6164,
      "Ġcarrots": 6165,
      "Ġmortgage": 6166,
      "Ġlemon": 6167,
      "Ġshrimp": 6168,
      "Ġbehavior": 6169,
      "Ġcalendar": 6170,
      "Ġbranches": 6171,
      "13": 6172,
      "40": 6173,
      "gin": 6174,
      "mind": 6175,
      "rical": 6176,
      "Ġtips": 6177,
      "Ġtires": 6178,
      "Ġah": 6179,
      "Ġwalt": 6180,
      "Ġyard": 6181,
      "Ġcav": 6182,
      "Ġfi": 6183,
      "Ġfear": 6184,
      "Ġphar": 6185,
      "Ġporter": 6186,
      "Ġrev": 6187,
      "Ġhesit": 6188,
      "ĠHonda": 6189,
      "ĠAmy": 6190,
      "Ġstone": 6191,
      "ĠOb": 6192,
      "ctors": 6193,
      "ĠLea": 6194,
      "ateful": 6195,
      "Ġmum": 6196,
      "ĠPr": 6197,
      "ĠPay": 6198,
      "ĠPol": 6199,
      "iger": 6200,
      "osen": 6201,
      "ĠFortunately": 6202,
      "Ġbull": 6203,
      "Ġsaved": 6204,
      "Ġchosen": 6205,
      "Ġflash": 6206,
      "getic": 6207,
      "ilding": 6208,
      "Ġbooking": 6209,
      "Ġgrateful": 6210,
      "ĠKaren": 6211,
      "Ġrelieve": 6212,
      "Ġemails": 6213,
      "Ġbreaking": 6214,
      "ĠAlt": 6215,
      "Ġprescribe": 6216,
      "Ġextent": 6217,
      "Ġcorporate": 6218,
      "Ġemployment": 6219,
      "Ġcapt": 6220,
      "Ġforest": 6221,
      "Ġarts": 6222,
      "Ġbuildings": 6223,
      "Ġposted": 6224,
      "Ġgeneration": 6225,
      "Ġdeveloping": 6226,
      "Ġsteam": 6227,
      "Ġopera": 6228,
      "Ġprints": 6229,
      "Ġprinted": 6230,
      "Ġlandl": 6231,
      "Ġgrandfather": 6232,
      "ertificates": 6233,
      "Ġissues": 6234,
      "Ġrelationships": 6235,
      "Ġunfair": 6236,
      "Ġgarbage": 6237,
      "Ġchatting": 6238,
      "ĠCarl": 6239,
      "Ġsmells": 6240,
      "Ġenergetic": 6241,
      "rilliant": 6242,
      "Ġorganization": 6243,
      "Ġ::": 6244,
      "Ġchemistry": 6245,
      "Ġplumbing": 6246,
      "Ġidentification": 6247,
      "ĠSchool": 6248,
      "arently": 6249,
      "Ġcommercial": 6250,
      "Ġoverdraft": 6251,
      "Ġmethods": 6252,
      "Ġrailway": 6253,
      "Ġstrategy": 6254,
      "pirin": 6255,
      "Ġcotton": 6256,
      "ĠãĢĤ": 6257,
      "ĠPalace": 6258,
      "Ġbalcony": 6259,
      "ĠBirthday": 6260,
      "Ġpharm": 6261,
      "eight": 6262,
      "fall": 6263,
      "firm": 6264,
      "gas": 6265,
      "husi": 6266,
      "moon": 6267,
      "pha": 6268,
      "Ġaward": 6269,
      "Ġsources": 6270,
      "eriously": 6271,
      "Ġtoes": 6272,
      "itors": 6273,
      "itute": 6274,
      "Ġpul": 6275,
      "Ġgrill": 6276,
      "Ġforce": 6277,
      "Ġeval": 6278,
      "Ġwealth": 6279,
      "Ġhike": 6280,
      "ida": 6281,
      "ĠAC": 6282,
      "ĠSyd": 6283,
      "ĠCash": 6284,
      "ĠDis": 6285,
      "ĠDamn": 6286,
      "ĠYesterday": 6287,
      "ĠBrian": 6288,
      "Ġshown": 6289,
      "Ġshock": 6290,
      "iland": 6291,
      "Ġplug": 6292,
      "ĠPat": 6293,
      "ĠGree": 6294,
      "ĠEither": 6295,
      "ĠJe": 6296,
      "ĠJess": 6297,
      "Ġintention": 6298,
      "Ġvan": 6299,
      "Ġpeel": 6300,
      "Ġoverc": 6301,
      "ĠValent": 6302,
      "vings": 6303,
      "Ġleaf": 6304,
      "Ġclassic": 6305,
      "Ġbookst": 6306,
      "Ġdecis": 6307,
      "Ġdrivers": 6308,
      "Ġrap": 6309,
      "Ġhighway": 6310,
      "ups": 6311,
      "Ġspecialty": 6312,
      "Ġ600": 6313,
      "Ġsings": 6314,
      "Ġpolite": 6315,
      "Ġsurg": 6316,
      "Ġexpectations": 6317,
      "Ġinstance": 6318,
      "Ġmatters": 6319,
      "Ġsubur": 6320,
      "Ġemployed": 6321,
      "Ġenthusi": 6322,
      "Ġcrush": 6323,
      "Ġactual": 6324,
      "Ġesc": 6325,
      "Ġarrives": 6326,
      "Ġfollowed": 6327,
      "Ġweights": 6328,
      "Ġtempt": 6329,
      "Ġdesigner": 6330,
      "Ġtreatment": 6331,
      "Ġlowest": 6332,
      "Ġleader": 6333,
      "Ġdancer": 6334,
      "Ġpatience": 6335,
      "Ġaccidentally": 6336,
      "Ġnaturally": 6337,
      "Ġhoneymoon": 6338,
      "Ġcloses": 6339,
      "Ġscene": 6340,
      "ĠIndeed": 6341,
      "ĠPlus": 6342,
      "Ġcartons": 6343,
      "Ġwooden": 6344,
      "Ġefficiency": 6345,
      "Ġdestination": 6346,
      "ĠSeattle": 6347,
      "Ġdelayed": 6348,
      "Ġassigned": 6349,
      "ĠElvin": 6350,
      "ĠJulia": 6351,
      "Ġinitial": 6352,
      "Ġspirit": 6353,
      "Ġcreate": 6354,
      "Ġmanufacturer": 6355,
      "Ġscarf": 6356,
      "known": 6357,
      "Ġinfluence": 6358,
      "Ġpencil": 6359,
      "ademic": 6360,
      "Ġvictim": 6361,
      "Ġcuisine": 6362,
      "Ġoutfit": 6363,
      "ĠThailand": 6364,
      "condition": 6365,
      "ĠSydney": 6366,
      "18": 6367,
      "95": 6368,
      "Sorry": 6369,
      "kin": 6370,
      "mill": 6371,
      "mine": 6372,
      "su": 6373,
      "Ġsac": 6374,
      "ĠIB": 6375,
      "Ġcit": 6376,
      "erob": 6377,
      "Ġbac": 6378,
      "Ġtoot": 6379,
      "Ġdu": 6380,
      "Ġdizzy": 6381,
      "Ġnails": 6382,
      "arrow": 6383,
      "atics": 6384,
      "otic": 6385,
      "oosing": 6386,
      "ĠSara": 6387,
      "imb": 6388,
      "ĠMarket": 6389,
      "ĠBook": 6390,
      "ĠNope": 6391,
      "ĠNancy": 6392,
      "Ġexceed": 6393,
      "gee": 6394,
      "Ġplot": 6395,
      "elet": 6396,
      "Ġrating": 6397,
      "Ġroof": 6398,
      "Ġconv": 6399,
      "ĠFe": 6400,
      "ĠJen": 6401,
      "istance": 6402,
      "istics": 6403,
      "Ġvitamins": 6404,
      "Ġchilly": 6405,
      "cious": 6406,
      "Ġwond": 6407,
      "Ġfloors": 6408,
      "ĠUmm": 6409,
      "intosh": 6410,
      "Ġ32": 6411,
      "Ġcardboard": 6412,
      "class": 6413,
      "Ġsupper": 6414,
      "Ġshake": 6415,
      "Ġpasses": 6416,
      "Ġcleans": 6417,
      "Ġfunction": 6418,
      "Ġsignature": 6419,
      "ivity": 6420,
      "Ġcredits": 6421,
      "Ġadvise": 6422,
      "Ġcurtain": 6423,
      "Ġcamping": 6424,
      "Ġjoke": 6425,
      "Ġsells": 6426,
      "Ġsmoker": 6427,
      "Ġassure": 6428,
      "Ġhonors": 6429,
      "Ġquicker": 6430,
      "Ġprior": 6431,
      "Ġcontracts": 6432,
      "Ġprovided": 6433,
      "Ġconditioning": 6434,
      "Ġannounce": 6435,
      "ĠZeal": 6436,
      "Ġmidnight": 6437,
      "ĠAccord": 6438,
      "ĠJanuary": 6439,
      "Ġfields": 6440,
      "Ġfaith": 6441,
      "ĠDaddy": 6442,
      "Ġfreed": 6443,
      "Ġtrend": 6444,
      "Ġburger": 6445,
      "Ġkilo": 6446,
      "ĠKevin": 6447,
      "ĠMicro": 6448,
      "Ġcreated": 6449,
      "ĠGerm": 6450,
      "Ġbanking": 6451,
      "Ġorganizing": 6452,
      "Ġmarks": 6453,
      "Ġmeantime": 6454,
      "Ġconstant": 6455,
      "Ġcrying": 6456,
      "ĠBetter": 6457,
      "Ġlimited": 6458,
      "month": 6459,
      "Ġcircum": 6460,
      "Ġbutterf": 6461,
      "Ġcancelled": 6462,
      "Ġnonsmoking": 6463,
      "Ġrecognize": 6464,
      "Ġsociety": 6465,
      "ĠRestaurant": 6466,
      "Ġmascara": 6467,
      "minded": 6468,
      "Ġwaltz": 6469,
      "ĠLeave": 6470,
      "ĠAltadena": 6471,
      "ĠZealand": 6472,
      "76": 6473,
      "fill": 6474,
      "field": 6475,
      "fashion": 6476,
      "round": 6477,
      "ww": 6478,
      "Ġtango": 6479,
      "Ġsorts": 6480,
      "rely": 6481,
      "onst": 6482,
      "Ġcow": 6483,
      "eries": 6484,
      "Ġbrilliant": 6485,
      "ita": 6486,
      "Ġfans": 6487,
      "orough": 6488,
      "Ġpour": 6489,
      "Ġpeak": 6490,
      "Ġpump": 6491,
      "Ġlux": 6492,
      "Ġniece": 6493,
      "Ġinch": 6494,
      "storms": 6495,
      "Ġthorough": 6496,
      "Ġisland": 6497,
      "Ġreduced": 6498,
      "asc": 6499,
      "ĠHol": 6500,
      "ĠAha": 6501,
      "ĠSeriously": 6502,
      "roke": 6503,
      "ĠBer": 6504,
      "Ġworn": 6505,
      "Ġalive": 6506,
      "ĠLater": 6507,
      "Ġwhose": 6508,
      "Ġcoins": 6509,
      "ĠFill": 6510,
      "istant": 6511,
      "resp": 6512,
      "Ġsafer": 6513,
      "Ġpret": 6514,
      "ptoms": 6515,
      "Ġguitar": 6516,
      "Ġbrick": 6517,
      "Ġteen": 6518,
      "Ġwriter": 6519,
      "Ġdislike": 6520,
      "Ġhousework": 6521,
      "Ġhanded": 6522,
      "ĠStep": 6523,
      "ĠKen": 6524,
      "Ġbringing": 6525,
      "Ġtrained": 6526,
      "Ġturns": 6527,
      "Ġtrial": 6528,
      "Ġimpact": 6529,
      "Ġexamination": 6530,
      "Ġpositions": 6531,
      "ĠDoesn": 6532,
      "Ġbirds": 6533,
      "Ġfavorable": 6534,
      "Ġrefuse": 6535,
      "Ġreflect": 6536,
      "Ġmaintenance": 6537,
      "Ġprofic": 6538,
      "Ġedition": 6539,
      "Ġsidewalk": 6540,
      "Ġdefinite": 6541,
      "ological": 6542,
      "Ġplaced": 6543,
      "Ġbrothers": 6544,
      "Ġanswers": 6545,
      "ysis": 6546,
      "shirt": 6547,
      "Ġvalid": 6548,
      "Ġstocks": 6549,
      "Ġaffordable": 6550,
      "Ġarrangement": 6551,
      "Ġzone": 6552,
      "Ġfigured": 6553,
      "Ġapproach": 6554,
      "Ġripe": 6555,
      "Ġcapable": 6556,
      "Thanks": 6557,
      "Ġfighting": 6558,
      "Ġdemonst": 6559,
      "Ġscores": 6560,
      "Ġtowel": 6561,
      "Ġtowels": 6562,
      "Ġexports": 6563,
      "Ġphysics": 6564,
      "ĠManagement": 6565,
      "Ġcooperate": 6566,
      "ĠAirlines": 6567,
      "ĠTravel": 6568,
      "Ġselected": 6569,
      "ĠCoffee": 6570,
      "ĠSavings": 6571,
      "ĠÂ£": 6572,
      "Ġanalysis": 6573,
      "Ġplatform": 6574,
      "Ġobviously": 6575,
      "Ġpuzz": 6576,
      "Ġsuppliers": 6577,
      "Ġoccupation": 6578,
      "Ġstretch": 6579,
      "ĠMartin": 6580,
      "Ġdiamond": 6581,
      "Ġstructure": 6582,
      "Ġsymptoms": 6583,
      "Ġthirsty": 6584,
      "Ġearthquake": 6585,
      "Ġsofa": 6586,
      "Ġfiance": 6587,
      "Ġhesitate": 6588,
      "Ġlandlord": 6589,
      "ĠValentine": 6590,
      "fashioned": 6591,
      "42": 6592,
      "Our": 6593,
      "do": 6594,
      "ially": 6595,
      "ige": 6596,
      "lt": 6597,
      "low": 6598,
      "rot": 6599,
      "Ġtas": 6600,
      "Ġaunt": 6601,
      "Ġsom": 6602,
      "ĠIBA": 6603,
      "Ġboo": 6604,
      "Ġbare": 6605,
      "Ġge": 6606,
      "Ġgown": 6607,
      "Ġnail": 6608,
      "omin": 6609,
      "enities": 6610,
      "ĠWood": 6611,
      "ĠWomen": 6612,
      "ication": 6613,
      "ĠâĢĵ": 6614,
      "Ġbean": 6615,
      "utes": 6616,
      "idents": 6617,
      "ales": 6618,
      "ĠSum": 6619,
      "aces": 6620,
      "Ġstole": 6621,
      "Ġseldom": 6622,
      "ĠIts": 6623,
      "ĠMel": 6624,
      "ĠMiao": 6625,
      "ĠCE": 6626,
      "ĠBea": 6627,
      "ease": 6628,
      "ĠLake": 6629,
      "Ġamenities": 6630,
      "Ġcoach": 6631,
      "Ġrow": 6632,
      "anda": 6633,
      "aked": 6634,
      "Ġlottery": 6635,
      "Ġchoosing": 6636,
      "Ġbackpack": 6637,
      "Ġperman": 6638,
      "Ġrecover": 6639,
      "Ġscrew": 6640,
      "Ġhandbag": 6641,
      "Ġmatches": 6642,
      "Ġserving": 6643,
      "Ġthroughout": 6644,
      "Ġrealized": 6645,
      "aura": 6646,
      "Ġcommitted": 6647,
      "Ġinterviews": 6648,
      "Ġcookies": 6649,
      "Ġwinning": 6650,
      "Ġmetal": 6651,
      "Ġreference": 6652,
      "Ġrainy": 6653,
      "Ġcatching": 6654,
      "Ġconvenience": 6655,
      "Ġdiscussed": 6656,
      "Ġjoined": 6657,
      "Ġcupboard": 6658,
      "Ġfalls": 6659,
      "Ġtreated": 6660,
      "Ġsurprising": 6661,
      "Ġdistract": 6662,
      "Ġdistrib": 6663,
      "Ġcollections": 6664,
      "ĠClaim": 6665,
      "Ġstronger": 6666,
      "Ġcheapest": 6667,
      "Ġappropri": 6668,
      "Ġapproval": 6669,
      "Ġconnected": 6670,
      "Ġsalads": 6671,
      "Ġimprovement": 6672,
      "Ġcapac": 6673,
      "Ġriding": 6674,
      "Ġgrape": 6675,
      "Ġpolling": 6676,
      "Ġlabel": 6677,
      "Ġkilos": 6678,
      "Ġcomplaints": 6679,
      "Ġconfirmed": 6680,
      "Ġhanging": 6681,
      "Ġinfo": 6682,
      "Ġbrave": 6683,
      "ĠMacintosh": 6684,
      "Ġmask": 6685,
      "Ġbleeding": 6686,
      "Ġcombination": 6687,
      "ĠBritish": 6688,
      "Ġestablished": 6689,
      "Ġessential": 6690,
      "ĠKorea": 6691,
      "Ġcosmet": 6692,
      "Ġambul": 6693,
      "ĠCharles": 6694,
      "Ġstereo": 6695,
      "Ġexecut": 6696,
      "Ġtroubles": 6697,
      "Ġsouthern": 6698,
      "Ġbuffet": 6699,
      "Ġfabulous": 6700,
      "Ġinsects": 6701,
      "ĠContinued": 6702,
      "Ġmarvelous": 6703,
      "ĠDisney": 6704,
      "ĠIBM": 6705,
      "Ġtoothache": 6706,
      "Ġfreedom": 6707,
      "89": 6708,
      "Pro": 6709,
      "Sm": 6710,
      "To": 6711,
      "bu": 6712,
      "but": 6713,
      "ien": 6714,
      "ius": 6715,
      "iers": 6716,
      "of": 6717,
      "rary": 6718,
      "rings": 6719,
      "het": 6720,
      "oned": 6721,
      "Ġcord": 6722,
      "Ġcub": 6723,
      "orters": 6724,
      "Ġdil": 6725,
      "Ġpad": 6726,
      "Ġlid": 6727,
      "Ġnasty": 6728,
      "Ġnarrow": 6729,
      "owder": 6730,
      "ĠTang": 6731,
      "ĠThai": 6732,
      "Ġthunder": 6733,
      "Ġeager": 6734,
      "Ġwears": 6735,
      "Ġum": 6736,
      "acific": 6737,
      "illa": 6738,
      "ĠMuse": 6739,
      "ĠMont": 6740,
      "ĠCap": 6741,
      "ĠNorm": 6742,
      "Ġaspirin": 6743,
      "Ġexit": 6744,
      "ĠLa": 6745,
      "Ġwholes": 6746,
      "ĠPacific": 6747,
      "ĠFantastic": 6748,
      "umber": 6749,
      "Ġclo": 6750,
      "Ġquote": 6751,
      "Ġcheating": 6752,
      "Ġtruly": 6753,
      "ĠThirty": 6754,
      "Ġbush": 6755,
      "Ġpremium": 6756,
      "ittance": 6757,
      "Ġ29": 6758,
      "erves": 6759,
      "Ġmanners": 6760,
      "Ġmanagers": 6761,
      "Ġchap": 6762,
      "Ġcharity": 6763,
      "ĠStay": 6764,
      "Ġlearnt": 6765,
      "Ġdeserves": 6766,
      "ancies": 6767,
      "Ġskating": 6768,
      "Ġdifferently": 6769,
      "Ġmathem": 6770,
      "Ġspecially": 6771,
      "Ġframe": 6772,
      "Ġcouples": 6773,
      "Ġtries": 6774,
      "ĠAsian": 6775,
      "Ġcorn": 6776,
      "Ġlargest": 6777,
      "Ġwines": 6778,
      "Ġeyel": 6779,
      "Ġfactors": 6780,
      "Ġsneak": 6781,
      "Ġsystems": 6782,
      "Ġreceipts": 6783,
      "Ġmedication": 6784,
      "Ġdrops": 6785,
      "selor": 6786,
      "Ġlanded": 6787,
      "Ġstressed": 6788,
      "Ġapproved": 6789,
      "ĠJimmy": 6790,
      "Ġimmediate": 6791,
      "Ġduties": 6792,
      "Ġnotebook": 6793,
      "Ġengineering": 6794,
      "Ġnuts": 6795,
      "Ġautomatically": 6796,
      "ĠHelp": 6797,
      "Ġviolence": 6798,
      "Ġlobster": 6799,
      "isco": 6800,
      "Ġnovels": 6801,
      "Ġphotography": 6802,
      "ĠChannel": 6803,
      "Ġregarding": 6804,
      "Ġfuel": 6805,
      "ynasty": 6806,
      "Ġhistorical": 6807,
      "Ġbrochure": 6808,
      "ĠHawai": 6809,
      "Ġensure": 6810,
      "Ġbookstore": 6811,
      "Ġsurgery": 6812,
      "ĠMuseum": 6813,
      "12": 6814,
      "80": 6815,
      "Dad": 6816,
      "Every": 6817,
      "host": 6818,
      "Ġaerob": 6819,
      "oust": 6820,
      "happy": 6821,
      "Ġcate": 6822,
      "Ġdiving": 6823,
      "Ġpardon": 6824,
      "ĠWr": 6825,
      "arry": 6826,
      "Ġthreat": 6827,
      "ĠYellow": 6828,
      "Ġbeers": 6829,
      "Ġformer": 6830,
      "Ġreimb": 6831,
      "ashing": 6832,
      "ĠOak": 6833,
      "Ġsemin": 6834,
      "ĠMine": 6835,
      "ĠCoke": 6836,
      "ĠDE": 6837,
      "ĠBack": 6838,
      "ĠNorth": 6839,
      "hers": 6840,
      "Ġaspect": 6841,
      "Ġspoke": 6842,
      "ĠGold": 6843,
      "ĠET": 6844,
      "Ġvia": 6845,
      "Ġenroll": 6846,
      "Ġlotion": 6847,
      "Ġappeal": 6848,
      "becca": 6849,
      "Ġunhappy": 6850,
      "eresting": 6851,
      "urnished": 6852,
      "ĠUnder": 6853,
      "Ġcareless": 6854,
      "ĠKelly": 6855,
      "Ġtermin": 6856,
      "Ġairs": 6857,
      "Ġprompt": 6858,
      "ences": 6859,
      "Ġbillion": 6860,
      "Ġjokes": 6861,
      "Ġvacant": 6862,
      "Ġprim": 6863,
      "Ġmessed": 6864,
      "Ġlesson": 6865,
      "Ġcentury": 6866,
      "Ġpressed": 6867,
      "Ġtempor": 6868,
      "Ġwheel": 6869,
      "Ġblackout": 6870,
      "Ġsisters": 6871,
      "Ġgenerous": 6872,
      "ĠTaipe": 6873,
      "ĠClass": 6874,
      "ĠTrade": 6875,
      "Ġ110": 6876,
      "box": 6877,
      "Ġdreamed": 6878,
      "Ġripped": 6879,
      "Ġ180": 6880,
      "Ġprocessing": 6881,
      "Ġborrowed": 6882,
      "ĠParker": 6883,
      "Ġbaseball": 6884,
      "Ġrobbed": 6885,
      "Ġargue": 6886,
      "ĠBetty": 6887,
      "Ġcatalogue": 6888,
      "Ġflavors": 6889,
      "Ġcheque": 6890,
      "iverse": 6891,
      "Ġathletes": 6892,
      "Ġlifest": 6893,
      "Ġinjured": 6894,
      "ĠMedium": 6895,
      "Ġfrustrating": 6896,
      "Ġstrawberry": 6897,
      "Ġrewarding": 6898,
      "Ġowner": 6899,
      "Ġcoupons": 6900,
      "Ġrobbery": 6901,
      "Ġreconfirm": 6902,
      "Ġcircumst": 6903,
      "Ġpermanent": 6904,
      "Ġcapacity": 6905,
      "Ġambulance": 6906,
      "Ġcateg": 6907,
      "ĠTaipei": 6908,
      "17": 6909,
      "36": 6910,
      "fu": 6911,
      "len": 6912,
      "long": 6913,
      "ok": 6914,
      "Ġwipe": 6915,
      "Ġcuri": 6916,
      "Ġdim": 6917,
      "Ġpure": 6918,
      "Ġpum": 6919,
      "Ġlying": 6920,
      "Ġgre": 6921,
      "Ġhack": 6922,
      "Ġthrew": 6923,
      "icals": 6924,
      "ĠYi": 6925,
      "Ġhip": 6926,
      "Ġdoz": 6927,
      "Ġheating": 6928,
      "ĠHolly": 6929,
      "ĠAc": 6930,
      "ĠAw": 6931,
      "ĠAgain": 6932,
      "rip": 6933,
      "Ġseve": 6934,
      "adium": 6935,
      "ĠMid": 6936,
      "ĠMus": 6937,
      "ĠCross": 6938,
      "anton": 6939,
      "ĠBang": 6940,
      "ĠNine": 6941,
      "Ġalb": 6942,
      "ĠLat": 6943,
      "ĠLaura": 6944,
      "ĠPing": 6945,
      "ĠPass": 6946,
      "Ġconvin": 6947,
      "Ġlogo": 6948,
      "ĠJerry": 6949,
      "ĠAnderson": 6950,
      "reeze": 6951,
      "Ġoverhead": 6952,
      "emb": 6953,
      "Ġpaycheck": 6954,
      "Ġflag": 6955,
      "Ġresolution": 6956,
      "ignon": 6957,
      "Ġmonitor": 6958,
      "eek": 6959,
      "Ġ38": 6960,
      "ĠRebecca": 6961,
      "Ġhardware": 6962,
      "place": 6963,
      "Ġ56": 6964,
      "Ġpassword": 6965,
      "Ġimports": 6966,
      "Ġearrings": 6967,
      "ĠAnytime": 6968,
      "Ġacademic": 6969,
      "Ġstranger": 6970,
      "Ġsuites": 6971,
      "Ġemployers": 6972,
      "encies": 6973,
      "Ġwalks": 6974,
      "Ġshorthand": 6975,
      "Ġrefres": 6976,
      "Ġsleepy": 6977,
      "criptions": 6978,
      "Ġpainful": 6979,
      "Ġsymb": 6980,
      "Ġreturned": 6981,
      "ĠHaving": 6982,
      "Ġallows": 6983,
      "Ġattendant": 6984,
      "Ġattendance": 6985,
      "Ġeighty": 6986,
      "Ġdistur": 6987,
      "Ġsolution": 6988,
      "Ġearliest": 6989,
      "ĠBrad": 6990,
      "Ġestate": 6991,
      "Ġfluently": 6992,
      "Ġbandages": 6993,
      "ĠMaria": 6994,
      "ĠEmily": 6995,
      "Ġpoison": 6996,
      "Ġmisunder": 6997,
      "Ġbanan": 6998,
      "Ġstamp": 6999,
      "555": 7000,
      "Ġcandidates": 7001,
      "Ġconstru": 7002,
      "Ġfrequent": 7003,
      "Ġarrested": 7004,
      "ĠMexican": 7005,
      "Ġflavor": 7006,
      "Ġslipped": 7007,
      "Ġinquiry": 7008,
      "Ġworkshop": 7009,
      "Ġfolk": 7010,
      "Ġninety": 7011,
      "Ġpredict": 7012,
      "Ġshouting": 7013,
      "Ġpregnant": 7014,
      "Ġpamph": 7015,
      "ĠHawaii": 7016,
      "Ġsymbol": 7017,
      "98": 7018,
      "Honey": 7019,
      "II": 7020,
      "apt": 7021,
      "lar": 7022,
      "now": 7023,
      "niquet": 7024,
      "oe": 7025,
      "pot": 7026,
      "piece": 7027,
      "ray": 7028,
      "west": 7029,
      "zes": 7030,
      "Ġeth": 7031,
      "Ġtan": 7032,
      "Ġtatt": 7033,
      "iner": 7034,
      "inating": 7035,
      "ĠIr": 7036,
      "onse": 7037,
      "erable": 7038,
      "Ġfasc": 7039,
      "Ġdread": 7040,
      "Ġpitc": 7041,
      "Ġghost": 7042,
      "atory": 7043,
      "ators": 7044,
      "ĠTina": 7045,
      "alf": 7046,
      "ĠHonest": 7047,
      "rif": 7048,
      "Ġupper": 7049,
      "Ġstays": 7050,
      "Ġneat": 7051,
      "ĠMuch": 7052,
      "ĠCha": 7053,
      "ĠCanton": 7054,
      "ĠDa": 7055,
      "ĠDes": 7056,
      "Ġjoint": 7057,
      "Ġexist": 7058,
      "Ġdeb": 7059,
      "ĠFlor": 7060,
      "unci": 7061,
      "ĠJill": 7062,
      "Ġvase": 7063,
      "Ġoverall": 7064,
      "Ġcheated": 7065,
      "Ġherself": 7066,
      "soft": 7067,
      "Ġbuyer": 7068,
      "Ġunited": 7069,
      "Ġdisease": 7070,
      "irect": 7071,
      "Ġphil": 7072,
      "Ġshave": 7073,
      "Ġrestrict": 7074,
      "Ġpassing": 7075,
      "Ġpolish": 7076,
      "Ġthirteen": 7077,
      "Ġsubst": 7078,
      "Ġcurly": 7079,
      "Ġconfusing": 7080,
      "Ġentry": 7081,
      "Ġtraveled": 7082,
      "Ġwindy": 7083,
      "Ġresponse": 7084,
      "Ġtourniquet": 7085,
      "Ġarrival": 7086,
      "pected": 7087,
      "Ġaffairs": 7088,
      "ĠSpain": 7089,
      "Ġsteps": 7090,
      "Ġintroduced": 7091,
      "Ġequally": 7092,
      "Ġorganized": 7093,
      "Ġdivided": 7094,
      "Ġeconomics": 7095,
      "Ġreminds": 7096,
      "Ġantique": 7097,
      "Ġclosing": 7098,
      "ĠArt": 7099,
      "ĠItaly": 7100,
      "Ġpowerful": 7101,
      "Ġpenalty": 7102,
      "Ġbanquet": 7103,
      "ĠHarry": 7104,
      "Ġmuseums": 7105,
      "Ġsuffer": 7106,
      "Ġpreparation": 7107,
      "Ġslept": 7108,
      "Ġdecorating": 7109,
      "Ġstrike": 7110,
      "Ġreligion": 7111,
      "Ġphotographs": 7112,
      "Ġshuttle": 7113,
      "Ġefficiently": 7114,
      "Ġsensible": 7115,
      "Ġexplan": 7116,
      "Ġlocked": 7117,
      "ĠEconomy": 7118,
      "Ġgrocer": 7119,
      "Ġanaly": 7120,
      "Ġfeedback": 7121,
      "Ġoutdoor": 7122,
      "Ġflea": 7123,
      "Ġslightly": 7124,
      "Ġadults": 7125,
      "Ġcomplexion": 7126,
      "Ġpronunci": 7127,
      "Ġfrozen": 7128,
      "Ġocean": 7129,
      "Ġconcentrate": 7130,
      "Ġdumplings": 7131,
      "Ġsuburbs": 7132,
      "ĠMicrosoft": 7133,
      "Ġbarely": 7134,
      "Smith": 7135,
      "Ġsneakers": 7136,
      "ĠCantonese": 7137,
      "34": 7138,
      "39": 7139,
      "Bob": 7140,
      "DD": 7141,
      "OB": 7142,
      "Some": 7143,
      "Wait": 7144,
      "gri": 7145,
      "lish": 7146,
      "life": 7147,
      "put": 7148,
      "van": 7149,
      "Ġtid": 7150,
      "Ġtiny": 7151,
      "inner": 7152,
      "Ġdi": 7153,
      "anking": 7154,
      "Ġpace": 7155,
      "Ġgam": 7156,
      "Ġgum": 7157,
      "Ġobs": 7158,
      "ĠWatch": 7159,
      "ĠTimes": 7160,
      "Ġreun": 7161,
      "asing": 7162,
      "rial": 7163,
      "Ġcance": 7164,
      "ĠOper": 7165,
      "irley": 7166,
      "advant": 7167,
      "ĠMil": 7168,
      "ĠCV": 7169,
      "ĠDuring": 7170,
      "ĠNick": 7171,
      "Ġsuck": 7172,
      "ĠLas": 7173,
      "ĠLucky": 7174,
      "Ġdeals": 7175,
      "quis": 7176,
      "Ġoutgoing": 7177,
      "aint": 7178,
      "elry": 7179,
      "osoph": 7180,
      "ender": 7181,
      "ĠFif": 7182,
      "andy": 7183,
      "ĠEDD": 7184,
      "ĠJord": 7185,
      "aret": 7186,
      "Ġ1000": 7187,
      "Ġchew": 7188,
      "Ġtrash": 7189,
      "Ġtricks": 7190,
      "Ġsheets": 7191,
      "Ġgreatly": 7192,
      "Ġbrac": 7193,
      "Ġunique": 7194,
      "Ġdisadvant": 7195,
      "ĠIns": 7196,
      "Ġleis": 7197,
      "Ġunderstood": 7198,
      "Ġclassified": 7199,
      "Ġphones": 7200,
      "ĠSteve": 7201,
      "Ġraw": 7202,
      "Ġdiscovered": 7203,
      "Ġcouch": 7204,
      "Ġmusical": 7205,
      "Ġcorresp": 7206,
      "Ġslack": 7207,
      "Ġcooker": 7208,
      "Ġcauses": 7209,
      "Ġvent": 7210,
      "Ġdresses": 7211,
      "Ġcleaner": 7212,
      "Ġvacancy": 7213,
      "fficient": 7214,
      "Ġfastest": 7215,
      "Ġtasted": 7216,
      "ledg": 7217,
      "Ġproviding": 7218,
      "ĠShirley": 7219,
      "ĠTwenty": 7220,
      "ĠPeking": 7221,
      "Ġdiscounts": 7222,
      "Ġprofessors": 7223,
      "Ġprivacy": 7224,
      "Ġhunt": 7225,
      "Ġoperator": 7226,
      "Ġbrands": 7227,
      "Ġorganize": 7228,
      "Ġcompete": 7229,
      "Ġcompetitors": 7230,
      "ambled": 7231,
      "Ġcontinu": 7232,
      "Ġkiller": 7233,
      "Ġmotiv": 7234,
      "ocable": 7235,
      "Ġactivity": 7236,
      "Ġestimate": 7237,
      "ĠAround": 7238,
      "Ġcreating": 7239,
      "ĠCarol": 7240,
      "ĠAustralian": 7241,
      "Ġdocumentary": 7242,
      "Ġsnacks": 7243,
      "ĠEconomics": 7244,
      "ĠSales": 7245,
      "Ġspirits": 7246,
      "ĠWindows": 7247,
      "Ġworkshops": 7248,
      "helle": 7249,
      "Ġmulti": 7250,
      "Ġharmful": 7251,
      "Ġlungs": 7252,
      "Ġintelligent": 7253,
      "Ġcomedy": 7254,
      "Ġcounselor": 7255,
      "Ġseventy": 7256,
      "Ġenterprise": 7257,
      "Ġargument": 7258,
      "Ġhamburger": 7259,
      "Ġmattress": 7260,
      "Ġcurtains": 7261,
      "Ġproficient": 7262,
      "Ġcircumstances": 7263,
      "ĠFlorida": 7264,
      "Ġgamble": 7265,
      "ĠJordan": 7266,
      "Ġcorrespond": 7267,
      "Happ": 7268,
      "KE": 7269,
      "Nice": 7270,
      "cases": 7271,
      "giving": 7272,
      "hop": 7273,
      "pro": 7274,
      "top": 7275,
      "uations": 7276,
      "wear": 7277,
      "Ġver": 7278,
      "rehen": 7279,
      "Ġwound": 7280,
      "Ġwave": 7281,
      "Ġtoward": 7282,
      "Ġpowder": 7283,
      "Ġlag": 7284,
      "vember": 7285,
      "eday": 7286,
      "sticks": 7287,
      "levant": 7288,
      "iches": 7289,
      "section": 7290,
      "ĠSwe": 7291,
      "ĠSize": 7292,
      "robe": 7293,
      "ĠMor": 7294,
      "ĠCook": 7295,
      "ĠDian": 7296,
      "Ġsoph": 7297,
      "ĠNah": 7298,
      "Ġsung": 7299,
      "Ġsusp": 7300,
      "raight": 7301,
      "ĠLA": 7302,
      "uls": 7303,
      "Ġwhisk": 7304,
      "ĠDoing": 7305,
      "ĠNovember": 7306,
      "Ġspacious": 7307,
      "ainted": 7308,
      "ĠPart": 7309,
      "ĠPardon": 7310,
      "Ġuses": 7311,
      "ĠFord": 7312,
      "ĠEar": 7313,
      "resso": 7314,
      "Ġintense": 7315,
      "Ġvou": 7316,
      "assy": 7317,
      "Ġsaves": 7318,
      "ization": 7319,
      "Ġunex": 7320,
      "Ġuniverse": 7321,
      "Ġmanic": 7322,
      "ĠUse": 7323,
      "ĠUntil": 7324,
      "Ġidi": 7325,
      "oster": 7326,
      "angers": 7327,
      "ĠCouldn": 7328,
      "Ġsalty": 7329,
      "Ġshared": 7330,
      "ĠStraight": 7331,
      "Ġsecure": 7332,
      "Ġserves": 7333,
      "Ġmaturity": 7334,
      "Ġfridge": 7335,
      "Ġairline": 7336,
      "Ġchildhood": 7337,
      "Ġfourteen": 7338,
      "Ġfounded": 7339,
      "Ġentered": 7340,
      "Ġwarmer": 7341,
      "ĠSmoking": 7342,
      "Ġtours": 7343,
      "Ġappointments": 7344,
      "Ġprogrammes": 7345,
      "Ġposters": 7346,
      "ruce": 7347,
      "Ġrelaxation": 7348,
      "Ġcups": 7349,
      "Ġprofession": 7350,
      "Ġpercentage": 7351,
      "Ġelected": 7352,
      "Ġhospitality": 7353,
      "Ġleads": 7354,
      "Ġenvironmental": 7355,
      "ĠQue": 7356,
      "Ġdreams": 7357,
      "Ġdeadlines": 7358,
      "Ġfacilities": 7359,
      "Ġcomplaint": 7360,
      "Ġinvolves": 7361,
      "ĠMichelle": 7362,
      "Ġproposed": 7363,
      "Ġexhibits": 7364,
      "Ġbonuses": 7365,
      "Ġnegotiation": 7366,
      "Ġmiserable": 7367,
      "Ġnutr": 7368,
      "Ġsuffered": 7369,
      "Ġpermitted": 7370,
      "Ġoccasionally": 7371,
      "Ġcontribute": 7372,
      "Ġinstallation": 7373,
      "Ġsensitive": 7374,
      "ĠKorean": 7375,
      "Ġcabinet": 7376,
      "ĠBuilding": 7377,
      "Ġchopsticks": 7378,
      "ĠBenjam": 7379,
      "Ġexpanding": 7380,
      "Ġalternatives": 7381,
      "Ġfragr": 7382,
      "itanic": 7383,
      "Ġnegative": 7384,
      "Ġimmig": 7385,
      "ĠWilliams": 7386,
      "Ġwardrobe": 7387,
      "Ġannounced": 7388,
      "ĠHoliday": 7389,
      "Ġsomeday": 7390,
      "ĠSummer": 7391,
      "ĠCEO": 7392,
      "ĠBeaut": 7393,
      "Ġcosmetics": 7394,
      "ĠETV": 7395,
      "Ġairsick": 7396,
      "Ġlifestyle": 7397,
      "Ġdozens": 7398,
      "Ġtattoo": 7399,
      "Ġphilosoph": 7400,
      "Ġgroceries": 7401,
      "Ġventure": 7402,
      "Happy": 7403,
      "rehens": 7404,
      "Ġunexpected": 7405,
      "ĠBenjamin": 7406,
      "32": 7407,
      "Af": 7408,
      "RE": 7409,
      "ares": 7410,
      "eenth": 7411,
      "ford": 7412,
      "garet": 7413,
      "kers": 7414,
      "overs": 7415,
      "shan": 7416,
      "that": 7417,
      "week": 7418,
      "Ġtank": 7419,
      "heast": 7420,
      "Ġwis": 7421,
      "Ġwars": 7422,
      "Ġtheory": 7423,
      "ona": 7424,
      "Ġcert": 7425,
      "Ġbone": 7426,
      "Ġbiz": 7427,
      "Ġden": 7428,
      "ingers": 7429,
      "Ġlun": 7430,
      "Ġginger": 7431,
      "Ġoint": 7432,
      "ĠTitanic": 7433,
      "seven": 7434,
      "Ġrelevant": 7435,
      "Ġhiring": 7436,
      "Ġheal": 7437,
      "ĠHigh": 7438,
      "ĠSeven": 7439,
      "Ġking": 7440,
      "ades": 7441,
      "ĠMing": 7442,
      "ĠMust": 7443,
      "ĠCup": 7444,
      "ĠChang": 7445,
      "ĠDig": 7446,
      "tering": 7447,
      "Ġjack": 7448,
      "Ġjazz": 7449,
      "ĠBig": 7450,
      "urred": 7451,
      "Ġspons": 7452,
      "ĠPleased": 7453,
      "Ġrang": 7454,
      "Ġcompared": 7455,
      "Ġconcept": 7456,
      "ieves": 7457,
      "ĠEric": 7458,
      "ĠEaster": 7459,
      "ĠRy": 7460,
      "Ġnewly": 7461,
      "obe": 7462,
      "Ġtwist": 7463,
      "agon": 7464,
      "Ġsheep": 7465,
      "ĠVisa": 7466,
      "Ġprison": 7467,
      "Ġadvent": 7468,
      "Ġadministration": 7469,
      "Ġapparently": 7470,
      "Ġweekly": 7471,
      "Ġpartners": 7472,
      "Ġexpense": 7473,
      "Ġcarried": 7474,
      "Ġresol": 7475,
      "Ġresign": 7476,
      "Ġhappier": 7477,
      "Ġuseless": 7478,
      "eeze": 7479,
      "ĠInter": 7480,
      "merce": 7481,
      "Ġrecy": 7482,
      "Ġdrama": 7483,
      "Ġcontrary": 7484,
      "Ġsharing": 7485,
      "ĠStars": 7486,
      "Ġlearner": 7487,
      "Ġimportance": 7488,
      "Ġrelief": 7489,
      "ogram": 7490,
      "ograp": 7491,
      "Ġmaker": 7492,
      "ancakes": 7493,
      "Ġlists": 7494,
      "Ġvision": 7495,
      "Ġconserv": 7496,
      "Ġcolored": 7497,
      "Ġending": 7498,
      "ĠAsk": 7499,
      "ĠAsia": 7500,
      "Ġretired": 7501,
      "Ġexamine": 7502,
      "Ġsuggested": 7503,
      "Ġswear": 7504,
      "Ġswoll": 7505,
      "Ġcrashed": 7506,
      "Ġsleeper": 7507,
      "ollar": 7508,
      "Ġcolorful": 7509,
      "Ġlistened": 7510,
      "Ġawake": 7511,
      "Ġcraft": 7512,
      "Ġballs": 7513,
      "Ġpublicity": 7514,
      "ĠTrans": 7515,
      "Ġdelicate": 7516,
      "Ġintroduction": 7517,
      "achel": 7518,
      "Ġoperating": 7519,
      "ĠMostly": 7520,
      "Ġdieting": 7521,
      "Ġdances": 7522,
      "Ġopinions": 7523,
      "Ġconnections": 7524,
      "Ġpurchasing": 7525,
      "ĠTaiwanese": 7526,
      "Ġreminding": 7527,
      "Ġcelebration": 7528,
      "Ġkilogram": 7529,
      "Ġquarters": 7530,
      "Ġexpression": 7531,
      "Ġbuddy": 7532,
      "Ġsurfing": 7533,
      "Ġpotato": 7534,
      "Ġsubscription": 7535,
      "Ġpeaceful": 7536,
      "Ġscrambled": 7537,
      "Ġfolks": 7538,
      "Ġbungee": 7539,
      "Ġliquor": 7540,
      "keeping": 7541,
      "Ġjewelry": 7542,
      "Ġpublished": 7543,
      "Ġyoga": 7544,
      "Ġrepayment": 7545,
      "Ġsteward": 7546,
      "Ġchinese": 7547,
      "Ġcrisp": 7548,
      "revocable": 7549,
      "ĠInteresting": 7550,
      "Ġdecisions": 7551,
      "Ġenthusiastic": 7552,
      "Ġsevere": 7553,
      "ĠLatin": 7554,
      "Ġexplanation": 7555,
      "After": 7556,
      "Ġointment": 7557,
      "Ġswollen": 7558,
      "05": 7559,
      "99": 7560,
      "EF": 7561,
      "bes": 7562,
      "cery": 7563,
      "egr": 7564,
      "fi": 7565,
      "hyd": 7566,
      "minton": 7567,
      "oat": 7568,
      "ucc": 7569,
      "vy": 7570,
      "water": 7571,
      "Ġted": 7572,
      "oul": 7573,
      "ĠIKE": 7574,
      "Ġce": 7575,
      "Ġbreeze": 7576,
      "Ġful": 7577,
      "Ġfingers": 7578,
      "order": 7579,
      "anley": 7580,
      "Ġped": 7581,
      "Ġpant": 7582,
      "Ġpra": 7583,
      "Ġlas": 7584,
      "Ġlane": 7585,
      "Ġlamp": 7586,
      "atown": 7587,
      "ĠTalk": 7588,
      "stone": 7589,
      "style": 7590,
      "Ġbeaches": 7591,
      "Ġeh": 7592,
      "Ġelder": 7593,
      "Ġhide": 7594,
      "Ġmeg": 7595,
      "ĠHalf": 7596,
      "ĠAgency": 7597,
      "ĠShar": 7598,
      "Ġstiff": 7599,
      "Ġseas": 7600,
      "ĠYoung": 7601,
      "ĠDal": 7602,
      "ĠDel": 7603,
      "ĠBruce": 7604,
      "ĠNan": 7605,
      "ĠNBA": 7606,
      "Ġshorter": 7607,
      "ĠLes": 7608,
      "ĠLife": 7609,
      "ĠLots": 7610,
      "Ġdehyd": 7611,
      "Ġspect": 7612,
      "Ġlover": 7613,
      "Ġintegr": 7614,
      "lph": 7615,
      "oline": 7616,
      "ĠHealth": 7617,
      "ittee": 7618,
      "Ġlets": 7619,
      "Ġ2000": 7620,
      "ĠTherefore": 7621,
      "Ġresident": 7622,
      "Ġunre": 7623,
      "Ġdiss": 7624,
      "Ġbloss": 7625,
      "ĠUK": 7626,
      "Ġintersection": 7627,
      "Ġsche": 7628,
      "Ġbadminton": 7629,
      "Ġ55": 7630,
      "Ġdifferences": 7631,
      "oons": 7632,
      "ĠState": 7633,
      "ĠStanley": 7634,
      "ixed": 7635,
      "Ġpersons": 7636,
      "Ġdesire": 7637,
      "Ġmatched": 7638,
      "Ġstopping": 7639,
      "Ġdiscour": 7640,
      "Ġ65": 7641,
      "Ġacqu": 7642,
      "grad": 7643,
      "Ġlawn": 7644,
      "Ġextro": 7645,
      "Ġextend": 7646,
      "Ġwaterfall": 7647,
      "Ġmale": 7648,
      "ificant": 7649,
      "Ġfactories": 7650,
      "Ġcutting": 7651,
      "Ġheadaches": 7652,
      "Ġrefresh": 7653,
      "Ġsellers": 7654,
      "Ġpopulation": 7655,
      "Ġbegins": 7656,
      "Ġacceptance": 7657,
      "proof": 7658,
      "ĠJohnny": 7659,
      "olley": 7660,
      "Ġmajored": 7661,
      "ruit": 7662,
      "Ġattendants": 7663,
      "Ġstuffed": 7664,
      "clean": 7665,
      "Ġmagn": 7666,
      "Ġapplicants": 7667,
      "minals": 7668,
      "Ġsuccessfully": 7669,
      "ĠWithout": 7670,
      "Ġmodest": 7671,
      "Ġelectrical": 7672,
      "Ġcoverage": 7673,
      "Ġattracted": 7674,
      "Ġchocolates": 7675,
      "Ġsticker": 7676,
      "Ġbrakes": 7677,
      "Ġlevels": 7678,
      "Ġportion": 7679,
      "Ġwrapped": 7680,
      "Ġachievement": 7681,
      "ĠCalm": 7682,
      "Ġprotection": 7683,
      "holders": 7684,
      "Ġladder": 7685,
      "Ġcombined": 7686,
      "Ġappearance": 7687,
      "ĠJulie": 7688,
      "Ġcheques": 7689,
      "Ġstatus": 7690,
      "Ġgrocery": 7691,
      "Ġprocedures": 7692,
      "Ġflew": 7693,
      "Ġweaknesses": 7694,
      "ĠFrancis": 7695,
      "ĠFrancisco": 7696,
      "looking": 7697,
      "Ġlecture": 7698,
      "Ġrecipes": 7699,
      "Ġeventually": 7700,
      "Ġsource": 7701,
      "Ġmicro": 7702,
      "leaded": 7703,
      "Ġscientific": 7704,
      "ĠObama": 7705,
      "Ġbullet": 7706,
      "ĠGreek": 7707,
      "Ġmanufacturers": 7708,
      "Ġsacrif": 7709,
      "Ġdupl": 7710,
      "ĠGermany": 7711,
      "Ġappropriate": 7712,
      "Ġreimburse": 7713,
      "ĠHollywood": 7714,
      "Ġconvinced": 7715,
      "quisite": 7716,
      "EFL": 7717,
      "ĠIKEA": 7718,
      "olleyball": 7719,
      "19": 7720,
      "distance": 7721,
      "eem": 7722,
      "mi": 7723,
      "net": 7724,
      "presso": 7725,
      "taking": 7726,
      "uries": 7727,
      "virus": 7728,
      "Ġast": 7729,
      "Ġya": 7730,
      "Ġmouse": 7731,
      "Ġmignon": 7732,
      "itable": 7733,
      "Ġpear": 7734,
      "Ġgal": 7735,
      "Ġgroom": 7736,
      "Ġgraph": 7737,
      "oman": 7738,
      "aration": 7739,
      "Ġink": 7740,
      "ĠTower": 7741,
      "Ġitching": 7742,
      "stery": 7743,
      "ician": 7744,
      "Ġep": 7745,
      "Ġreject": 7746,
      "Ġhy": 7747,
      "Ġhel": 7748,
      "ĠHam": 7749,
      "ĠHang": 7750,
      "ĠAg": 7751,
      "ĠAy": 7752,
      "Ġstones": 7753,
      "Ġmystery": 7754,
      "ĠCustom": 7755,
      "Ġabilities": 7756,
      "anted": 7757,
      "ĠNons": 7758,
      "ĠNumber": 7759,
      "Ġsufficient": 7760,
      "ushes": 7761,
      "romise": 7762,
      "Ġrot": 7763,
      "ĠGarden": 7764,
      "Ġshoulders": 7765,
      "Ġconvey": 7766,
      "ĠFriend": 7767,
      "Ġfeature": 7768,
      "Ġcliff": 7769,
      "ĠRich": 7770,
      "ĠRiver": 7771,
      "oli": 7772,
      "Ġenvelop": 7773,
      "Ġsaus": 7774,
      "Ġchick": 7775,
      "bert": 7776,
      "Ġadapt": 7777,
      "abies": 7778,
      "Ġbrush": 7779,
      "Ġflood": 7780,
      "Ġleak": 7781,
      "Ġhappiness": 7782,
      "ĠDonald": 7783,
      "ĠInn": 7784,
      "Ġrecall": 7785,
      "Ġnightm": 7786,
      "Ġwherever": 7787,
      "ĠRead": 7788,
      "Ġgrind": 7789,
      "Ġsalaries": 7790,
      "Ġremo": 7791,
      "Ġchart": 7792,
      "Ġrelatively": 7793,
      "Ġexcess": 7794,
      "Ġboiled": 7795,
      "orses": 7796,
      "Ġcostumes": 7797,
      "Ġcollar": 7798,
      "Ġregards": 7799,
      "Ġsignal": 7800,
      "Ġfreeze": 7801,
      "Ġfreezing": 7802,
      "Ġinterviewed": 7803,
      "Ġsurround": 7804,
      "cluding": 7805,
      "Ġbankrupt": 7806,
      "Ġavailability": 7807,
      "Ġhealthier": 7808,
      "Ġrespond": 7809,
      "Ġsalesman": 7810,
      "Ġsweep": 7811,
      "Ġprizes": 7812,
      "Ġappreciated": 7813,
      "Ġadvertised": 7814,
      "Isn": 7815,
      "Ġdistinct": 7816,
      "ĠTrading": 7817,
      "ĠComput": 7818,
      "ĠGetting": 7819,
      "Ġobtain": 7820,
      "Ġassistance": 7821,
      "Ġgasoline": 7822,
      "Ġspecies": 7823,
      "Ġcoats": 7824,
      "Ġwatches": 7825,
      "Ġsafely": 7826,
      "ĠMargaret": 7827,
      "ĠCorporate": 7828,
      "Ġloses": 7829,
      "ĠAirport": 7830,
      "Ġadmission": 7831,
      "Ġsixteen": 7832,
      "ĠTravell": 7833,
      "Ġaudition": 7834,
      "Ġtornad": 7835,
      "ĠLeo": 7836,
      "ĠGrandma": 7837,
      "Ġsmoothly": 7838,
      "Ġtalented": 7839,
      "Ġiniti": 7840,
      "Ġtailor": 7841,
      "Ġfrankly": 7842,
      "234": 7843,
      "Ġbrowsing": 7844,
      "Ġpilgri": 7845,
      "Ġinvestigation": 7846,
      "Ġdeposits": 7847,
      "Ġcrackers": 7848,
      "Ġignore": 7849,
      "Ġinfection": 7850,
      "Ġembarrassed": 7851,
      "Ġbuttons": 7852,
      "Ġlandscape": 7853,
      "Ġaccomplish": 7854,
      "Okay": 7855,
      "Ġporterhouse": 7856,
      "Ġpharmacy": 7857,
      "Ġpulse": 7858,
      "Ġconstantly": 7859,
      "Ġluxury": 7860,
      "Ġfiancee": 7861,
      "Ġtask": 7862,
      "Ġboost": 7863,
      "hetic": 7864,
      "Ġdiligent": 7865,
      "Ġwholesale": 7866,
      "Ġpronunciation": 7867,
      "Ġcanceled": 7868,
      "ĠOpera": 7869,
      "ĠQueen": 7870,
      "ĠRyan": 7871,
      "Ġstewardess": 7872,
      "Card": 7873,
      "For": 7874,
      "Jack": 7875,
      "Room": 7876,
      "Take": 7877,
      "au": 7878,
      "bal": 7879,
      "gue": 7880,
      "hy": 7881,
      "point": 7882,
      "va": 7883,
      "vest": 7884,
      "wo": 7885,
      "xious": 7886,
      "Ġtiles": 7887,
      "Ġaid": 7888,
      "Ġaim": 7889,
      "Ġawards": 7890,
      "Ġsigning": 7891,
      "ĠIQ": 7892,
      "Ġyo": 7893,
      "onents": 7894,
      "Ġcro": 7895,
      "Ġcass": 7896,
      "Ġcertificates": 7897,
      "Ġbot": 7898,
      "Ġbaking": 7899,
      "Ġfert": 7900,
      "Ġfuss": 7901,
      "Ġfellow": 7902,
      "Ġdot": 7903,
      "Ġdough": 7904,
      "Ġdiction": 7905,
      "antern": 7906,
      "Ġpancakes": 7907,
      "Ġnerve": 7908,
      "ĠWish": 7909,
      "ĠWater": 7910,
      "ĠTerry": 7911,
      "icate": 7912,
      "icians": 7913,
      "sell": 7914,
      "Ġforced": 7915,
      "oog": 7916,
      "Ġhills": 7917,
      "Ġhiding": 7918,
      "verse": 7919,
      "ĠSet": 7920,
      "roid": 7921,
      "Ġank": 7922,
      "Ġseated": 7923,
      "ĠMin": 7924,
      "ĠDu": 7925,
      "ĠDark": 7926,
      "ource": 7927,
      "ĠBanking": 7928,
      "urities": 7929,
      "Ġexquisite": 7930,
      "ĠLu": 7931,
      "ula": 7932,
      "ulpt": 7933,
      "ques": 7934,
      "qual": 7935,
      "Ġoutlet": 7936,
      "aste": 7937,
      "cknow": 7938,
      "ĠPick": 7939,
      "ĠPost": 7940,
      "Ġcompact": 7941,
      "ĠFoods": 7942,
      "ĠFOB": 7943,
      "ĠFoster": 7944,
      "ĠEgy": 7945,
      "umb": 7946,
      "ĠRet": 7947,
      "Ġvary": 7948,
      "Ġbuck": 7949,
      "cials": 7950,
      "ĠLetter": 7951,
      "ĠVar": 7952,
      "Ġprecious": 7953,
      "ĠSoci": 7954,
      "Ġprote": 7955,
      "Ġbrake": 7956,
      "Ġbricks": 7957,
      "Ġbuyers": 7958,
      "Ġunion": 7959,
      "ĠChinatown": 7960,
      "Ġaccur": 7961,
      "Ġhomeless": 7962,
      "atherine": 7963,
      "ĠAllen": 7964,
      "Ġfinals": 7965,
      "Ġdram": 7966,
      "Ġscrat": 7967,
      "Ġsculpt": 7968,
      "aves": 7969,
      "Ġdolls": 7970,
      "Ġremittance": 7971,
      "Ġrememb": 7972,
      "Ġrestroom": 7973,
      "ĠKar": 7974,
      "ĠKitty": 7975,
      "Ġdrift": 7976,
      "Ġcostume": 7977,
      "Ġmargin": 7978,
      "Ġconsign": 7979,
      "Ġspeaker": 7980,
      "Ġbeautifully": 7981,
      "grade": 7982,
      "Ġcommit": 7983,
      "ibly": 7984,
      "Ġcurry": 7985,
      "Ġconflic": 7986,
      "Ġshorts": 7987,
      "Ġtravelers": 7988,
      "Ġcashier": 7989,
      "Ġheads": 7990,
      "Ġ201": 7991,
      "Ġvacancies": 7992,
      "Ġsixth": 7993,
      "Ġartist": 7994,
      "Ġpractise": 7995,
      "Ġamounts": 7996,
      "Ġcooler": 7997,
      "ĠChristian": 7998,
      "ĠTwice": 7999
    },
    "merges": [
      [
        "Ġ",
        "t"
      ],
      [
        "Ġ",
        "."
      ],
      [
        "Ġ",
        "a"
      ],
      [
        "o",
        "u"
      ],
      [
        "h",
        "e"
      ],
      [
        "Ġ",
        "'"
      ],
      [
        "i",
        "n"
      ],
      [
        "Ġ",
        "s"
      ],
      [
        "r",
        "e"
      ],
      [
        "Ġ",
        "I"
      ],
      [
        "Ġ",
        "w"
      ],
      [
        "h",
        "a"
      ],
      [
        "Ġ",
        ","
      ],
      [
        "Ġ",
        "y"
      ],
      [
        "Ġy",
        "ou"
      ],
      [
        "Ġt",
        "he"
      ],
      [
        "Ġ",
        "m"
      ],
      [
        "o",
        "n"
      ],
      [
        "Ġ",
        "c"
      ],
      [
        "e",
        "r"
      ],
      [
        "Ġ",
        "b"
      ],
      [
        "Ġt",
        "o"
      ],
      [
        "i",
        "t"
      ],
      [
        "l",
        "l"
      ],
      [
        "Ġ",
        "?"
      ],
      [
        "Ġ",
        "f"
      ],
      [
        "o",
        "r"
      ],
      [
        "Ġ",
        "d"
      ],
      [
        "in",
        "g"
      ],
      [
        "i",
        "s"
      ],
      [
        "a",
        "n"
      ],
      [
        "Ġ",
        "\""
      ],
      [
        "e",
        "s"
      ],
      [
        "Ġ",
        "p"
      ],
      [
        "Ġ",
        "l"
      ],
      [
        "v",
        "e"
      ],
      [
        "ha",
        "t"
      ],
      [
        "n",
        "d"
      ],
      [
        "Ġ",
        "g"
      ],
      [
        "Ġ",
        "o"
      ],
      [
        "Ġ",
        "n"
      ],
      [
        "o",
        "m"
      ],
      [
        "e",
        "n"
      ],
      [
        "Ġ",
        "W"
      ],
      [
        "Ġ",
        "ha"
      ],
      [
        "o",
        "w"
      ],
      [
        "a",
        "r"
      ],
      [
        "e",
        "t"
      ],
      [
        "Ġ",
        "in"
      ],
      [
        "a",
        "t"
      ],
      [
        "Ġ",
        "T"
      ],
      [
        "e",
        "d"
      ],
      [
        "Ġ",
        "it"
      ],
      [
        "s",
        "t"
      ],
      [
        "l",
        "e"
      ],
      [
        "a",
        "y"
      ],
      [
        "Ġt",
        "h"
      ],
      [
        "Ġo",
        "f"
      ],
      [
        "Ġa",
        "nd"
      ],
      [
        "Ġ",
        "is"
      ],
      [
        "k",
        "e"
      ],
      [
        "i",
        "c"
      ],
      [
        "o",
        "t"
      ],
      [
        "â",
        "Ģ"
      ],
      [
        "Ġ",
        "âĢ"
      ],
      [
        "Ġ",
        "Y"
      ],
      [
        "Ġb",
        "e"
      ],
      [
        "ĠâĢ",
        "Ļ"
      ],
      [
        "s",
        "e"
      ],
      [
        "Ġf",
        "or"
      ],
      [
        "Ġ",
        "e"
      ],
      [
        "l",
        "d"
      ],
      [
        "Ġ",
        "on"
      ],
      [
        "Ġ",
        "re"
      ],
      [
        "'",
        "s"
      ],
      [
        "Ġha",
        "ve"
      ],
      [
        "o",
        "o"
      ],
      [
        "Ġw",
        "e"
      ],
      [
        "u",
        "t"
      ],
      [
        "Ġ",
        "h"
      ],
      [
        "Ġt",
        "hat"
      ],
      [
        "Ġd",
        "o"
      ],
      [
        "g",
        "h"
      ],
      [
        "Ġ",
        "he"
      ],
      [
        "v",
        "er"
      ],
      [
        "Ġm",
        "e"
      ],
      [
        "i",
        "d"
      ],
      [
        "a",
        "l"
      ],
      [
        "a",
        "s"
      ],
      [
        "ou",
        "ld"
      ],
      [
        "Ġ",
        "H"
      ],
      [
        "ou",
        "t"
      ],
      [
        "Ġl",
        "i"
      ],
      [
        "Ġ",
        "A"
      ],
      [
        "Ġyou",
        "r"
      ],
      [
        "a",
        "ll"
      ],
      [
        "Ġa",
        "re"
      ],
      [
        "gh",
        "t"
      ],
      [
        "r",
        "i"
      ],
      [
        "Ġ",
        "u"
      ],
      [
        "i",
        "on"
      ],
      [
        "Ġc",
        "an"
      ],
      [
        "Ġ",
        "S"
      ],
      [
        "'",
        "t"
      ],
      [
        "Ġ",
        "!"
      ],
      [
        "i",
        "m"
      ],
      [
        "en",
        "t"
      ],
      [
        "a",
        "c"
      ],
      [
        "i",
        "ll"
      ],
      [
        "Ġs",
        "t"
      ],
      [
        "l",
        "y"
      ],
      [
        "Ġ",
        "O"
      ],
      [
        "r",
        "o"
      ],
      [
        "Ġn",
        "e"
      ],
      [
        "Ġa",
        "n"
      ],
      [
        "om",
        "e"
      ],
      [
        "Ġs",
        "e"
      ],
      [
        "i",
        "r"
      ],
      [
        "Ġm",
        "y"
      ],
      [
        "ĠI",
        "t"
      ],
      [
        "Ġli",
        "ke"
      ],
      [
        "it",
        "h"
      ],
      [
        "Ġ",
        "k"
      ],
      [
        "ĠW",
        "e"
      ],
      [
        "a",
        "d"
      ],
      [
        "Ġ",
        "M"
      ],
      [
        "Ġg",
        "o"
      ],
      [
        "c",
        "h"
      ],
      [
        "ĠY",
        "ou"
      ],
      [
        "ĠT",
        "he"
      ],
      [
        "Ġw",
        "ith"
      ],
      [
        "Ġ",
        "C"
      ],
      [
        "u",
        "st"
      ],
      [
        "Ġ",
        "D"
      ],
      [
        "ĠW",
        "hat"
      ],
      [
        "t",
        "er"
      ],
      [
        "Ġa",
        "b"
      ],
      [
        "Ġth",
        "is"
      ],
      [
        "ha",
        "n"
      ],
      [
        "ou",
        "r"
      ],
      [
        "oo",
        "d"
      ],
      [
        "a",
        "m"
      ],
      [
        "an",
        "t"
      ],
      [
        "Ġ",
        "j"
      ],
      [
        "in",
        "k"
      ],
      [
        "ĠY",
        "es"
      ],
      [
        "all",
        "y"
      ],
      [
        "Ġ",
        "B"
      ],
      [
        "[",
        "'"
      ],
      [
        "Ġs",
        "o"
      ],
      [
        "Ġa",
        "t"
      ],
      [
        "Ġ",
        "N"
      ],
      [
        "i",
        "f"
      ],
      [
        "Ġs",
        "u"
      ],
      [
        "a",
        "ke"
      ],
      [
        "ver",
        "y"
      ],
      [
        "Ġab",
        "out"
      ],
      [
        "c",
        "e"
      ],
      [
        "Ġw",
        "ill"
      ],
      [
        "Ġth",
        "ink"
      ],
      [
        "he",
        "r"
      ],
      [
        "c",
        "t"
      ],
      [
        "Ġ'",
        "]"
      ],
      [
        "Ġd",
        "on"
      ],
      [
        "Ġn",
        "ot"
      ],
      [
        "Ġs",
        "h"
      ],
      [
        "Ġk",
        "n"
      ],
      [
        "Ġg",
        "et"
      ],
      [
        "r",
        "y"
      ],
      [
        "'",
        "m"
      ],
      [
        "o",
        "p"
      ],
      [
        "Ġkn",
        "ow"
      ],
      [
        "e",
        "a"
      ],
      [
        "t",
        "h"
      ],
      [
        "Ġw",
        "or"
      ],
      [
        "Ġb",
        "ut"
      ],
      [
        "o",
        "re"
      ],
      [
        "u",
        "r"
      ],
      [
        "oo",
        "k"
      ],
      [
        "ĠT",
        "hat"
      ],
      [
        "Ġthe",
        "re"
      ],
      [
        "Ġw",
        "as"
      ],
      [
        "ic",
        "e"
      ],
      [
        "Ġa",
        "s"
      ],
      [
        "b",
        "le"
      ],
      [
        "Ġse",
        "e"
      ],
      [
        "Ġe",
        "x"
      ],
      [
        "g",
        "e"
      ],
      [
        "n",
        "t"
      ],
      [
        "Ġc",
        "om"
      ],
      [
        "r",
        "a"
      ],
      [
        "Ġs",
        "ome"
      ],
      [
        "in",
        "d"
      ],
      [
        "p",
        "p"
      ],
      [
        "Ġw",
        "ant"
      ],
      [
        "Ġa",
        "ll"
      ],
      [
        "ĠH",
        "ow"
      ],
      [
        "ri",
        "ght"
      ],
      [
        "im",
        "e"
      ],
      [
        "Ġon",
        "e"
      ],
      [
        "at",
        "ion"
      ],
      [
        "Ġ",
        "or"
      ],
      [
        "a",
        "se"
      ],
      [
        "Ġa",
        "l"
      ],
      [
        "Ġan",
        "y"
      ],
      [
        "i",
        "l"
      ],
      [
        "u",
        "s"
      ],
      [
        "Ġw",
        "hat"
      ],
      [
        "i",
        "ght"
      ],
      [
        "Ġj",
        "ust"
      ],
      [
        "'",
        "ll"
      ],
      [
        "i",
        "ve"
      ],
      [
        "Ġp",
        "ro"
      ],
      [
        "han",
        "k"
      ],
      [
        "Ġw",
        "ould"
      ],
      [
        "Ġg",
        "ood"
      ],
      [
        "e",
        "re"
      ],
      [
        "Ġ",
        "L"
      ],
      [
        "Ġ",
        "right"
      ],
      [
        "Ġ",
        "very"
      ],
      [
        "Ġd",
        "e"
      ],
      [
        "ĠWe",
        "ll"
      ],
      [
        "u",
        "l"
      ],
      [
        "ar",
        "t"
      ],
      [
        "es",
        "t"
      ],
      [
        "Ġt",
        "ime"
      ],
      [
        "on",
        "e"
      ],
      [
        "le",
        "ase"
      ],
      [
        "r",
        "om"
      ],
      [
        "Ġne",
        "ed"
      ],
      [
        "q",
        "u"
      ],
      [
        "Ġw",
        "h"
      ],
      [
        "Ġp",
        "l"
      ],
      [
        "at",
        "e"
      ],
      [
        "Ġto",
        "o"
      ],
      [
        "es",
        "s"
      ],
      [
        "ĠD",
        "o"
      ],
      [
        "ĠN",
        "o"
      ],
      [
        "Ġ",
        "out"
      ],
      [
        "Ġwor",
        "k"
      ],
      [
        "Ġm",
        "u"
      ],
      [
        "on",
        "g"
      ],
      [
        "u",
        "re"
      ],
      [
        "in",
        "e"
      ],
      [
        "he",
        "n"
      ],
      [
        "Ġhe",
        "re"
      ],
      [
        "Ġre",
        "ally"
      ],
      [
        "a",
        "st"
      ],
      [
        "m",
        "ent"
      ],
      [
        "ĠO",
        "h"
      ],
      [
        "e",
        "ll"
      ],
      [
        "Ġmu",
        "ch"
      ],
      [
        "Ġa",
        "m"
      ],
      [
        "Ġs",
        "p"
      ],
      [
        "Ġu",
        "p"
      ],
      [
        "c",
        "k"
      ],
      [
        "a",
        "in"
      ],
      [
        "ĠB",
        "ut"
      ],
      [
        "Ġthe",
        "y"
      ],
      [
        "Ġd",
        "id"
      ],
      [
        "er",
        "s"
      ],
      [
        "Ġ",
        "P"
      ],
      [
        "or",
        "t"
      ],
      [
        "e",
        "l"
      ],
      [
        "Ġ",
        "our"
      ],
      [
        "Ġt",
        "ake"
      ],
      [
        "Ġ",
        "if"
      ],
      [
        "Ġl",
        "ook"
      ],
      [
        "Ġc",
        "o"
      ],
      [
        "i",
        "g"
      ],
      [
        "an",
        "y"
      ],
      [
        "Ġgo",
        "ing"
      ],
      [
        "d",
        "ay"
      ],
      [
        "Ġ",
        "r"
      ],
      [
        "ĠT",
        "hank"
      ],
      [
        "Ġf",
        "rom"
      ],
      [
        "ac",
        "k"
      ],
      [
        "ou",
        "nd"
      ],
      [
        "Ġcom",
        "p"
      ],
      [
        "o",
        "s"
      ],
      [
        "Ġ",
        "G"
      ],
      [
        "e",
        "nd"
      ],
      [
        "Ġu",
        "s"
      ],
      [
        "Ġsh",
        "ould"
      ],
      [
        "ar",
        "d"
      ],
      [
        "Ġc",
        "on"
      ],
      [
        "Ġ",
        "F"
      ],
      [
        "e",
        "ar"
      ],
      [
        "i",
        "e"
      ],
      [
        "u",
        "n"
      ],
      [
        "Ġp",
        "lease"
      ],
      [
        "an",
        "d"
      ],
      [
        "ay",
        "s"
      ],
      [
        "Ġf",
        "e"
      ],
      [
        "Ġ\"",
        "]"
      ],
      [
        "Ġa",
        "f"
      ],
      [
        "Ġ",
        "E"
      ],
      [
        "u",
        "m"
      ],
      [
        "Ġn",
        "ow"
      ],
      [
        "Ġl",
        "o"
      ],
      [
        "Ġc",
        "l"
      ],
      [
        "Ġ",
        "qu"
      ],
      [
        "it",
        "e"
      ],
      [
        "Ġ",
        "R"
      ],
      [
        "re",
        "at"
      ],
      [
        "Ġ",
        "J"
      ],
      [
        "Ġof",
        "f"
      ],
      [
        "Ġm",
        "o"
      ],
      [
        "n",
        "ing"
      ],
      [
        "Ġthe",
        "m"
      ],
      [
        "Ġm",
        "ore"
      ],
      [
        "h",
        "ing"
      ],
      [
        "is",
        "t"
      ],
      [
        "ĠW",
        "h"
      ],
      [
        "am",
        "e"
      ],
      [
        "re",
        "s"
      ],
      [
        "'",
        "ve"
      ],
      [
        "ic",
        "k"
      ],
      [
        "a",
        "re"
      ],
      [
        "Ġ",
        "1"
      ],
      [
        "he",
        "re"
      ],
      [
        "Ġin",
        "t"
      ],
      [
        "a",
        "k"
      ],
      [
        "Ġbe",
        "en"
      ],
      [
        "ĠA",
        "nd"
      ],
      [
        "l",
        "p"
      ],
      [
        "re",
        "e"
      ],
      [
        "Ġ",
        "ro"
      ],
      [
        "Ġhe",
        "lp"
      ],
      [
        "th",
        "ing"
      ],
      [
        "Ġg",
        "ot"
      ],
      [
        "Ġ",
        "v"
      ],
      [
        "it",
        "y"
      ],
      [
        "Ġne",
        "w"
      ],
      [
        "Ġh",
        "ow"
      ],
      [
        "Ġn",
        "o"
      ],
      [
        "Ġm",
        "ake"
      ],
      [
        "e",
        "ct"
      ],
      [
        "'",
        "re"
      ],
      [
        "o",
        "l"
      ],
      [
        "Ġa",
        "g"
      ],
      [
        "i",
        "es"
      ],
      [
        "ou",
        "nt"
      ],
      [
        "Ġc",
        "ould"
      ],
      [
        "om",
        "et"
      ],
      [
        "Ġp",
        "e"
      ],
      [
        "Ġ.",
        "."
      ],
      [
        "op",
        "le"
      ],
      [
        "o",
        "b"
      ],
      [
        "Ġt",
        "w"
      ],
      [
        "ou",
        "s"
      ],
      [
        "a",
        "g"
      ],
      [
        "e",
        "p"
      ],
      [
        "ĠI",
        "s"
      ],
      [
        "Ġb",
        "y"
      ],
      [
        "t",
        "her"
      ],
      [
        "Ġ..",
        "."
      ],
      [
        "Ġo",
        "ver"
      ],
      [
        "p",
        "er"
      ],
      [
        "Ġc",
        "he"
      ],
      [
        "Ġw",
        "hen"
      ],
      [
        "ĠH",
        "e"
      ],
      [
        "as",
        "s"
      ],
      [
        "Ġha",
        "s"
      ],
      [
        "'",
        "d"
      ],
      [
        "Ġt",
        "r"
      ],
      [
        "0",
        "0"
      ],
      [
        "Ġpe",
        "ople"
      ],
      [
        "ac",
        "t"
      ],
      [
        "is",
        "h"
      ],
      [
        "Ġ",
        "en"
      ],
      [
        "ĠT",
        "h"
      ],
      [
        "Ġb",
        "us"
      ],
      [
        "Ġl",
        "ot"
      ],
      [
        "ĠO",
        "K"
      ],
      [
        "Ġsu",
        "re"
      ],
      [
        "Ġb",
        "u"
      ],
      [
        "Ġs",
        "he"
      ],
      [
        "Ġs",
        "a"
      ],
      [
        "Ġhe",
        "r"
      ],
      [
        "r",
        "ow"
      ],
      [
        "Ġc",
        "h"
      ],
      [
        "Ġe",
        "very"
      ],
      [
        "Ġa",
        "r"
      ],
      [
        "ou",
        "gh"
      ],
      [
        "Ġc",
        "all"
      ],
      [
        "Ġwe",
        "e"
      ],
      [
        "ir",
        "st"
      ],
      [
        "[",
        "\""
      ],
      [
        "Ġthe",
        "n"
      ],
      [
        "Ġth",
        "ing"
      ],
      [
        "or",
        "ry"
      ],
      [
        "ĠC",
        "an"
      ],
      [
        "Ġwe",
        "ll"
      ],
      [
        "u",
        "se"
      ],
      [
        "Ġs",
        "omet"
      ],
      [
        "a",
        "ble"
      ],
      [
        "c",
        "i"
      ],
      [
        "Ġc",
        "ome"
      ],
      [
        "Ġt",
        "ell"
      ],
      [
        "Ġy",
        "ear"
      ],
      [
        "Ġha",
        "d"
      ],
      [
        "a",
        "ge"
      ],
      [
        "ve",
        "n"
      ],
      [
        "b",
        "er"
      ],
      [
        "f",
        "f"
      ],
      [
        "Ġl",
        "ong"
      ],
      [
        "Ġb",
        "et"
      ],
      [
        "ĠL",
        "et"
      ],
      [
        "Ġ",
        "V"
      ],
      [
        "re",
        "d"
      ],
      [
        "c",
        "c"
      ],
      [
        "d",
        "er"
      ],
      [
        "id",
        "e"
      ],
      [
        "l",
        "f"
      ],
      [
        "Ġb",
        "ack"
      ],
      [
        "Ġd",
        "ay"
      ],
      [
        "Ġdo",
        "es"
      ],
      [
        "Ġaf",
        "ter"
      ],
      [
        "ĠThe",
        "y"
      ],
      [
        "Ġo",
        "ther"
      ],
      [
        "u",
        "d"
      ],
      [
        "Ġg",
        "reat"
      ],
      [
        "v",
        "ing"
      ],
      [
        "Ġp",
        "re"
      ],
      [
        "ĠS",
        "o"
      ],
      [
        "Ġp",
        "r"
      ],
      [
        "Ġw",
        "ay"
      ],
      [
        "e",
        "m"
      ],
      [
        "Ġro",
        "om"
      ],
      [
        "it",
        "t"
      ],
      [
        "ea",
        "h"
      ],
      [
        "Ġc",
        "our"
      ],
      [
        "Ġh",
        "im"
      ],
      [
        "Ġtw",
        "o"
      ],
      [
        "Ġg",
        "ive"
      ],
      [
        "s",
        "o"
      ],
      [
        "x",
        "t"
      ],
      [
        "ble",
        "m"
      ],
      [
        "ac",
        "h"
      ],
      [
        "Ġpro",
        "blem"
      ],
      [
        "u",
        "ally"
      ],
      [
        "Ġa",
        "d"
      ],
      [
        "ĠI",
        "f"
      ],
      [
        "o",
        "y"
      ],
      [
        "Ġl",
        "et"
      ],
      [
        "p",
        "t"
      ],
      [
        "Ġw",
        "on"
      ],
      [
        "ĠWh",
        "y"
      ],
      [
        "Ġa",
        "pp"
      ],
      [
        "Ġon",
        "ly"
      ],
      [
        "k",
        "ing"
      ],
      [
        "Ġf",
        "irst"
      ],
      [
        "ĠM",
        "y"
      ],
      [
        "Ġj",
        "ob"
      ],
      [
        "ĠC",
        "h"
      ],
      [
        "Ġ",
        "2"
      ],
      [
        "ĠThe",
        "re"
      ],
      [
        "a",
        "b"
      ],
      [
        "p",
        "ort"
      ],
      [
        "Ġs",
        "ir"
      ],
      [
        "Ġp",
        "ay"
      ],
      [
        "Ġm",
        "any"
      ],
      [
        "Ġk",
        "ind"
      ],
      [
        "ac",
        "e"
      ],
      [
        "res",
        "s"
      ],
      [
        "Ġ",
        "ll"
      ],
      [
        "Ġg",
        "u"
      ],
      [
        "b",
        "e"
      ],
      [
        "Ġ",
        "im"
      ],
      [
        "Ġsomet",
        "hing"
      ],
      [
        "Ġcour",
        "se"
      ],
      [
        "Ġwee",
        "k"
      ],
      [
        "Ġt",
        "ry"
      ],
      [
        "ow",
        "n"
      ],
      [
        "t",
        "y"
      ],
      [
        "ĠM",
        "ay"
      ],
      [
        "an",
        "ce"
      ],
      [
        "Ġal",
        "so"
      ],
      [
        "ĠTh",
        "is"
      ],
      [
        "ic",
        "h"
      ],
      [
        "ar",
        "y"
      ],
      [
        "ĠH",
        "ere"
      ],
      [
        "o",
        "se"
      ],
      [
        "Ġs",
        "ay"
      ],
      [
        "a",
        "il"
      ],
      [
        "Ġcomp",
        "any"
      ],
      [
        "a",
        "ve"
      ],
      [
        "Ġb",
        "r"
      ],
      [
        "Ġf",
        "ind"
      ],
      [
        "ĠA",
        "re"
      ],
      [
        "Ġf",
        "l"
      ],
      [
        "ĠY",
        "eah"
      ],
      [
        "Ġto",
        "day"
      ],
      [
        "ot",
        "her"
      ],
      [
        "Ġp",
        "er"
      ],
      [
        "u",
        "e"
      ],
      [
        "one",
        "y"
      ],
      [
        "n",
        "g"
      ],
      [
        "Ġs",
        "orry"
      ],
      [
        "Ġfe",
        "el"
      ],
      [
        "ĠS",
        "ure"
      ],
      [
        "Ġl",
        "ea"
      ],
      [
        "ri",
        "end"
      ],
      [
        "Ġany",
        "thing"
      ],
      [
        "Ġwe",
        "re"
      ],
      [
        "Ġp",
        "art"
      ],
      [
        "Ġdid",
        "n"
      ],
      [
        "an",
        "s"
      ],
      [
        "Ġl",
        "ast"
      ],
      [
        "at",
        "er"
      ],
      [
        "Ġbet",
        "ter"
      ],
      [
        "Ġex",
        "p"
      ],
      [
        "ĠM",
        "r"
      ],
      [
        "Ġme",
        "et"
      ],
      [
        "Ġc",
        "ar"
      ],
      [
        "oo",
        "l"
      ],
      [
        "f",
        "ore"
      ],
      [
        "Ġ",
        "ke"
      ],
      [
        "er",
        "t"
      ],
      [
        "Ġc",
        "han"
      ],
      [
        "Ġche",
        "ck"
      ],
      [
        "Ġre",
        "s"
      ],
      [
        "Ġt",
        "ra"
      ],
      [
        "Ġne",
        "xt"
      ],
      [
        "Ġt",
        "e"
      ],
      [
        "ou",
        "ght"
      ],
      [
        "Ġha",
        "pp"
      ],
      [
        "Ġbu",
        "y"
      ],
      [
        "Ġlo",
        "ve"
      ],
      [
        "ad",
        "y"
      ],
      [
        "ĠO",
        "k"
      ],
      [
        "ar",
        "k"
      ],
      [
        "Ġm",
        "ust"
      ],
      [
        "or",
        "ning"
      ],
      [
        "ig",
        "n"
      ],
      [
        "Ġt",
        "han"
      ],
      [
        "er",
        "v"
      ],
      [
        "itt",
        "le"
      ],
      [
        "Ġm",
        "in"
      ],
      [
        "Ġbe",
        "fore"
      ],
      [
        "a",
        "use"
      ],
      [
        "Ġl",
        "ittle"
      ],
      [
        "i",
        "z"
      ],
      [
        "Ġm",
        "on"
      ],
      [
        "w",
        "ay"
      ],
      [
        "Ġwh",
        "o"
      ],
      [
        "ound",
        "s"
      ],
      [
        "Ġu",
        "n"
      ],
      [
        "w",
        "ays"
      ],
      [
        "Ġm",
        "orning"
      ],
      [
        "if",
        "f"
      ],
      [
        "Ġw",
        "r"
      ],
      [
        "ere",
        "st"
      ],
      [
        "Ġbe",
        "c"
      ],
      [
        "Ġu",
        "se"
      ],
      [
        "ĠCh",
        "in"
      ],
      [
        "ur",
        "n"
      ],
      [
        "Ġal",
        "ways"
      ],
      [
        "or",
        "row"
      ],
      [
        "Ġd",
        "own"
      ],
      [
        "Ġst",
        "art"
      ],
      [
        "Ġm",
        "oney"
      ],
      [
        "it",
        "ion"
      ],
      [
        "g",
        "et"
      ],
      [
        "d",
        "u"
      ],
      [
        "Ġh",
        "is"
      ],
      [
        "Ġint",
        "erest"
      ],
      [
        "Ġa",
        "cc"
      ],
      [
        "Ġmon",
        "th"
      ],
      [
        "Ġm",
        "ay"
      ],
      [
        "Ġy",
        "es"
      ],
      [
        "a",
        "it"
      ],
      [
        "is",
        "e"
      ],
      [
        "Ġs",
        "m"
      ],
      [
        "Ġm",
        "an"
      ],
      [
        "or",
        "m"
      ],
      [
        "ĠV",
        "e"
      ],
      [
        "ĠD",
        "on"
      ],
      [
[...]
